<unk>	0
<s>	0
</s>	0
<pad>	0
、	-2.82925
。	-2.97394
の	-3.05721
を	-4.01535
が	-4.08775
に	-4.09825
は	-4.17127
と	-4.3988
」	-4.41015
▁「	-4.51704
も	-4.83605
から	-4.97023
で	-5.07144
▁	-5.21511
か	-5.26097
な	-5.42617
る	-5.49134
た	-5.50365
い	-5.56896
て	-5.62419
した	-5.63013
して	-5.66936
し	-5.73215
その	-5.77201
って	-5.78025
り	-5.80222
この	-5.84498
する	-5.95233
く	-5.99467
だ	-5.99484
へ	-6.0159
ら	-6.09545
さ	-6.14103
私は	-6.14471
である	-6.15052
お	-6.15815
った	-6.25782
いた	-6.27544
ね	-6.33392
ない	-6.33548
また	-6.38738
き	-6.38989
一	-6.41853
人	-6.42265
でも	-6.43223
や	-6.44856
には	-6.48671
ある	-6.49521
す	-6.51977
そう	-6.54072
御	-6.54644
よ	-6.59054
だから	-6.61136
という	-6.61332
しかし	-6.68643
いる	-6.68866
代助は	-6.69259
自分の	-6.70446
している	-6.71071
わ	-6.72873
あ	-6.74362
ただ	-6.74885
「	-6.76775
のです	-6.77752
と云う	-6.7811
う	-6.78939
ました	-6.79047
時	-6.79141
なかった	-6.7915
出	-6.80728
何	-6.82899
であった	-6.83661
ん	-6.83974
三四郎は	-6.84545
まで	-6.8625
ま	-6.90228
けれども	-6.92293
なら	-6.92479
私の	-6.92885
そうして	-6.9432
大	-6.9704
いて	-6.99048
来た	-7.02102
もう	-7.02957
今	-7.03799
ばかり	-7.03942
み	-7.04181
事	-7.0448
日	-7.05057
すると	-7.05408
見	-7.05708
んだ	-7.059
気	-7.06155
手	-7.06162
がある	-7.077
K	-7.09541
少し	-7.09958
いい	-7.11428
です	-7.11511
つ	-7.14061
まだ	-7.14069
よく	-7.16603
になる	-7.19524
方	-7.21718
れ	-7.22664
ように	-7.24205
下	-7.24206
年	-7.244
所	-7.24532
け	-7.25498
子	-7.25945
だろう	-7.26356
君	-7.27119
ながら	-7.27485
二	-7.2776
っている	-7.28248
として	-7.28329
あの	-7.28568
上	-7.28963
彼は	-7.30006
事を	-7.30015
口	-7.30824
でした	-7.30971
それから	-7.31158
すぐ	-7.31447
先生	-7.31461
女	-7.33019
にも	-7.3312
じゃ	-7.33218
ような	-7.34852
分	-7.36095
。「	-7.36197
ので	-7.36351
中	-7.36986
ば	-7.37097
無	-7.37386
それで	-7.37982
家	-7.38419
ち	-7.38783
通り	-7.393
こ	-7.40433
ほど	-7.40912
になって	-7.41201
三	-7.41473
ます	-7.41685
んで	-7.42025
もの	-7.42085
私	-7.42159
後	-7.42445
め	-7.42674
より	-7.42863
でしょう	-7.4315
それを	-7.4346
金	-7.43881
心	-7.44226
物	-7.4438
こう	-7.44867
自分は	-7.45149
む	-7.45188
ている	-7.45236
ず	-7.45439
なり	-7.45739
していた	-7.46004
男	-7.46141
そんな	-7.46838
不	-7.47088
出した	-7.4795
。――	-7.48211
になった	-7.48569
何か	-7.49643
え	-7.49695
さえ	-7.49906
さん	-7.50028
なる	-7.52
よう	-7.52102
名	-7.52823
足	-7.531
月	-7.53278
力	-7.53297
来る	-7.53627
彼の	-7.53855
者	-7.53905
本	-7.54021
んです	-7.54213
生	-7.55422
ちょっと	-7.55644
こんな	-7.55981
だけ	-7.56319
ぬ	-7.56604
人の	-7.5674
前	-7.57315
だって	-7.57492
それ	-7.59279
それが	-7.59495
その時	-7.59727
それは	-7.59961
せ	-7.60071
れば	-7.61469
一人	-7.62036
しい	-7.62461
目	-7.62552
話	-7.63129
来	-7.63216
いや	-7.63496
じ	-7.6435
見ると	-7.64352
これ	-7.64377
急に	-7.65841
空	-7.66161
かった	-7.66426
行く	-7.66536
こと	-7.66744
とも	-7.66874
ええ	-7.67692
間	-7.67866
ど	-7.68552
大きな	-7.68808
外	-7.68856
聞いた	-7.68927
又	-7.69251
事は	-7.69782
用	-7.70583
らしい	-7.72149
のである	-7.72998
行	-7.73134
一つ	-7.73144
これは	-7.73576
......」	-7.739
顔	-7.73929
人間	-7.73934
先生は	-7.73963
小	-7.74121
地	-7.74927
眼	-7.75448
らない	-7.75537
のように	-7.7564
来て	-7.7629
どう	-7.76481
」「	-7.7721
まあ	-7.77251
ると	-7.77995
あった	-7.78049
好い	-7.78059
通	-7.78515
の上に	-7.79009
ご	-7.79016
顔を	-7.79259
とは	-7.79283
ですか	-7.80047
みんな	-7.80939
もし	-7.81197
をして	-7.81312
猫	-7.81419
出して	-7.8169
っ	-7.81713
だと	-7.81864
くらい	-7.82061
えて	-7.82605
しない	-7.82634
いました	-7.83154
屋	-7.83243
と云って	-7.83599
をする	-7.83857
ものだ	-7.83868
と云った	-7.83982
頭	-7.84178
奥さん	-7.84336
ものは	-7.84481
主人は	-7.86212
訳	-7.87145
▁代助は	-7.87449
もない	-7.87542
会	-7.8784
々	-7.88682
先生の	-7.8896
夜	-7.89085
なく	-7.89389
当	-7.89477
考え	-7.90461
風	-7.90948
しました	-7.91822
ところ	-7.92401
云う	-7.92791
見た	-7.92831
▁私は	-7.92831
んだから	-7.92876
そ	-7.92974
よりも	-7.93682
ろ	-7.94312
取り	-7.94519
起	-7.94773
じゃないか	-7.94852
着	-7.95068
では	-7.95639
じゃない	-7.96258
ぜ	-7.96314
▁三四郎は	-7.96345
ぶ	-7.96449
前に	-7.96623
あり	-7.96893
余	-7.96912
あまり	-7.97111
私が	-7.9723
べ	-7.97507
など	-7.97534
ー	-7.97636
ところが	-7.97719
はない	-7.97862
代助の	-7.97905
木	-7.98803
女の	-7.98844
おれは	-7.98855
を見	-7.99399
死	-7.99408
しく	-7.99476
様に	-8.00082
人が	-8.00436
書	-8.00443
まるで	-8.00912
合	-8.0134
あなた	-8.0152
思い	-8.0158
先	-8.01901
学校	-8.02079
断	-8.02386
方が	-8.02409
言	-8.0294
室	-8.03406
ではない	-8.03539
長	-8.03565
自分	-8.03713
に対して	-8.03747
直	-8.04004
語	-8.04212
?」	-8.04549
もっとも	-8.04928
がない	-8.0515
水	-8.05694
なぜ	-8.05884
向	-8.05888
四	-8.05961
まま	-8.06082
行った	-8.06163
愛	-8.06211
のか	-8.06224
様	-8.0647
君は	-8.067
手を	-8.06915
どうも	-8.06956
くなった	-8.07001
(	-8.07507
返	-8.07745
意味	-8.07808
と思って	-8.08023
東京	-8.08114
いない	-8.08317
たい	-8.08403
体	-8.08566
解	-8.08704
父の	-8.09001
鼻	-8.09053
悪	-8.09366
られた	-8.09453
花	-8.09471
?	-8.09898
めて	-8.09916
引き	-8.10164
かな	-8.10368
点	-8.10779
ていた	-8.10955
出す	-8.11084
音	-8.11321
程	-8.11383
おれ	-8.11609
居	-8.11655
んですか	-8.11734
全く	-8.11771
言葉	-8.11907
ぐ	-8.12209
をした	-8.12218
自分が	-8.12612
られる	-8.12621
っていた	-8.13036
れる	-8.13065
妻	-8.13117
かも知れない	-8.13166
)	-8.13502
どんな	-8.13513
白	-8.13729
気が	-8.13813
平岡	-8.13911
くる	-8.13937
早く	-8.14289
様子	-8.14296
ぎ	-8.14299
真	-8.14427
いくら	-8.14613
かい	-8.14658
ろう	-8.14784
重	-8.14818
ン	-8.14828
山	-8.14843
同	-8.15337
のない	-8.15338
び	-8.15494
の中に	-8.15609
なるほど	-8.15614
にして	-8.15666
天	-8.1578
有	-8.15977
変	-8.16574
道	-8.17245
と思う	-8.17534
突然	-8.17753
どこ	-8.17859
のために	-8.17885
眼を	-8.18022
女は	-8.1808
町	-8.18309
聞き	-8.19661
国	-8.19808
主人	-8.20106
時に	-8.20258
心配	-8.20362
うちに	-8.20543
ああ	-8.20662
めた	-8.20823
時々	-8.20904
われ	-8.21225
切	-8.21636
のだ	-8.21729
と思った	-8.2208
石	-8.22116
回	-8.22165
のある	-8.22558
なん	-8.22651
ふ	-8.22859
じゃありませんか	-8.23018
実	-8.23594
知らない	-8.23732
とか	-8.23739
二人	-8.24216
れて	-8.2428
利	-8.24304
内	-8.2431
いう	-8.24496
面	-8.24513
身	-8.24602
された	-8.24627
取	-8.24656
度	-8.24692
明	-8.24816
母	-8.25146
、「	-8.25341
同じ	-8.25625
横	-8.25689
付	-8.25776
話し	-8.2581
立って	-8.2583
色	-8.25878
とうとう	-8.25932
得	-8.2607
今まで	-8.26078
の事	-8.26312
主人の	-8.2654
寝	-8.26627
やはり	-8.26727
えた	-8.26972
門	-8.27036
必要	-8.27065
平	-8.27274
出来	-8.27754
......	-8.2782
十	-8.28177
頭を	-8.28256
なかなか	-8.28295
何だか	-8.28634
始めて	-8.28972
妙な	-8.2902
立ち	-8.29056
そりゃ	-8.29115
光	-8.29452
三千代	-8.29454
親	-8.29492
ずに	-8.29523
云った	-8.29609
君の	-8.29786
と言った	-8.29955
様な	-8.30021
ものを	-8.301
どうか	-8.30157
戸	-8.30555
の方へ	-8.30745
何でも	-8.31021
細君	-8.31281
代助	-8.31291
待	-8.31342
世間	-8.31371
楽	-8.31386
なければ	-8.31427
法	-8.31445
清	-8.31525
中に	-8.31645
私には	-8.31769
やがて	-8.31836
口を	-8.31859
といって	-8.31884
今日	-8.32193
れた	-8.3226
ません	-8.32315
世	-8.32455
くれ	-8.32919
結婚	-8.33198
部屋	-8.33281
悪い	-8.33338
える	-8.3334
があった	-8.33833
正	-8.33891
事が	-8.33923
大変	-8.33927
字	-8.34007
絵	-8.34025
事がある	-8.34194
つい	-8.34729
しまった	-8.35006
理	-8.35169
だけで	-8.35182
裏	-8.35287
を見て	-8.35289
しばらく	-8.35476
感	-8.35505
みた	-8.35592
げ	-8.35807
引	-8.36234
私に	-8.36436
半	-8.36462
家の	-8.36463
しか	-8.36482
父	-8.36523
好	-8.36617
兄	-8.36781
そうだ	-8.36849
、――	-8.37468
三千代は	-8.37477
食	-8.37513
関係	-8.37578
だった	-8.37627
吾輩は	-8.37712
かない	-8.38082
表	-8.38257
生徒	-8.38324
ものが	-8.38593
ために	-8.38835
僕は	-8.3887
話を	-8.38872
八	-8.38873
庭	-8.39173
ほとんど	-8.39228
りました	-8.39528
手紙	-8.39715
美禰子	-8.39717
多	-8.39845
位	-8.40068
出て	-8.40096
教師	-8.40115
入	-8.40254
学	-8.40495
五	-8.40551
目に	-8.40669
たる	-8.40873
奥さんは	-8.40974
態度	-8.41024
時間	-8.41511
困る	-8.41574
について	-8.41755
味	-8.41779
席	-8.41922
気に	-8.41933
ス	-8.42087
知	-8.42251
事実	-8.42251
今度は	-8.4227
所へ	-8.42337
がいい	-8.42479
帰って	-8.42679
放	-8.42832
と聞いた	-8.43177
のでした	-8.43497
頃	-8.43726
子供	-8.43785
声	-8.43981
時は	-8.44033
そうな	-8.44213
ちゃ	-8.44219
動	-8.44798
聞く	-8.45423
性	-8.45441
苦	-8.45627
湯	-8.45666
片	-8.45695
世の中	-8.46009
持ち	-8.46416
新	-8.46503
成	-8.46557
立	-8.46591
そこ	-8.46634
私を	-8.46639
ひ	-8.46842
病気	-8.4704
きた	-8.47112
ぞ	-8.47239
帰った	-8.47335
込んで	-8.47455
もある	-8.47506
があって	-8.47514
決して	-8.47531
お嬢さん	-8.47563
やっぱり	-8.47565
つき	-8.47713
置いて	-8.47987
いつ	-8.48035
言う	-8.48042
られ	-8.48268
と言う	-8.48299
場	-8.48372
人に	-8.48416
説	-8.48446
勢	-8.48448
事に	-8.48455
せる	-8.48502
車	-8.48652
実は	-8.48755
掛	-8.48804
のような	-8.48824
だけは	-8.48835
だが	-8.48964
ですね	-8.4898
なんて	-8.49029
第一	-8.49078
生活	-8.49554
意	-8.49556
ませんでした	-8.49591
宅	-8.49604
を持って	-8.49649
それに	-8.49744
父は	-8.49852
かね	-8.49903
行き	-8.5018
腹	-8.50185
なさい	-8.50232
相手	-8.5039
床	-8.50422
なんか	-8.50471
妹	-8.50506
玄関	-8.5051
実際	-8.50518
ものか	-8.50607
帰り	-8.50887
情	-8.50947
しかも	-8.50965
長い	-8.51023
可	-8.51128
迷亭	-8.5115
と答えた	-8.51345
見て	-8.51448
いている	-8.5146
ようやく	-8.51502
答え	-8.51518
大分	-8.51533
込んだ	-8.51585
死ぬ	-8.51594
極	-8.51681
きっと	-8.51699
出る	-8.51932
あれ	-8.51966
平岡の	-8.52358
あら	-8.52363
ため	-8.52493
嫂	-8.52526
貴方	-8.52591
たら	-8.52595
落	-8.52774
うん	-8.52926
あなたは	-8.531
立て	-8.5313
ぼ	-8.53193
やる	-8.53267
出た	-8.5342
上の	-8.53741
思う	-8.5375
あんな	-8.5376
そこで	-8.53886
いった	-8.54049
ひと	-8.54172
何も	-8.54173
画	-8.54183
人は	-8.54257
念	-8.5444
命	-8.54479
これを	-8.54752
問題	-8.55037
赤シャツ	-8.55111
六	-8.55132
晩	-8.55266
仕	-8.55305
どうしても	-8.55456
1	-8.55618
聞いて	-8.55678
かえって	-8.55708
んと	-8.55773
古	-8.55796
罪	-8.5605
なくなった	-8.56348
数	-8.56413
縁	-8.56618
夫	-8.5665
なに	-8.57046
けて	-8.5713
ことに	-8.57161
今日は	-8.57175
ましょう	-8.57204
下宿	-8.57207
それでも	-8.573
ほ	-8.57302
こっち	-8.57399
彼	-8.57622
行って	-8.57685
雨	-8.57701
に対する	-8.57746
的	-8.57753
流	-8.58033
持	-8.58046
わが	-8.58159
高	-8.58234
もなく	-8.58262
私も	-8.58558
おれの	-8.58682
例の	-8.58784
三四郎の	-8.59023
言った	-8.59273
なお	-8.593
べき	-8.59394
ります	-8.59435
だね	-8.59464
まず	-8.59469
海	-8.59493
ける	-8.59529
与次郎は	-8.59545
黒	-8.5958
朝	-8.59669
注意	-8.59872
少々	-8.59883
ル	-8.59891
どうして	-8.60174
といった	-8.60258
三千代の	-8.60283
ものだから	-8.60284
と言って	-8.60348
作	-8.60365
新聞	-8.60383
帰る	-8.60415
人間の	-8.60647
これから	-8.60698
やって	-8.6078
います	-8.60842
奴	-8.61016
のごとく	-8.61035
渡	-8.611
の中で	-8.61141
自分に	-8.61211
仕方がない	-8.61405
客	-8.61483
ざ	-8.61604
をもって	-8.61614
一番	-8.61668
おい	-8.61683
いなかった	-8.61713
鳴	-8.61783
される	-8.61797
葉	-8.61958
痛	-8.62063
しきりに	-8.62108
調子	-8.62231
三四郎	-8.62302
そうに	-8.62349
相	-8.62415
たち	-8.62418
張	-8.62922
両	-8.62954
神	-8.632
見る	-8.63487
わからない	-8.63562
高い	-8.63614
打	-8.63677
るのは	-8.63942
返事	-8.64013
出来ない	-8.64094
安	-8.64118
ラ	-8.64123
肉	-8.64324
これで	-8.64328
っと	-8.64463
角	-8.6448
面白い	-8.64557
されて	-8.64702
振り	-8.64854
それじゃ	-8.64957
僕の	-8.65055
考えて	-8.65129
と主人は	-8.65352
向う	-8.65358
事件	-8.6546
元	-8.65625
の間に	-8.65801
見える	-8.65931
押し	-8.66061
思	-8.6627
胸	-8.66288
言い	-8.66305
等	-8.6644
発	-8.66479
やら	-8.66501
この時	-8.6654
例	-8.66555
いけない	-8.66601
強い	-8.66603
端	-8.66625
浮	-8.66661
赤	-8.66718
さま	-8.66726
学生	-8.66935
ものと	-8.66996
飛び	-8.67207
いっしょに	-8.67307
ねえ	-8.67377
馬鹿	-8.67489
始めた	-8.67607
堀木	-8.67841
手に	-8.68056
その代り	-8.68074
笑	-8.68211
日本	-8.68288
自	-8.68379
時分	-8.68388
事も	-8.68434
暗	-8.68509
進	-8.6852
まい	-8.68568
なかったのです	-8.68737
れない	-8.68865
指	-8.68948
路	-8.69014
公	-8.6902
為	-8.6912
苦し	-8.69163
お前	-8.69203
先生が	-8.69668
何を	-8.69682
白い	-8.69684
薄	-8.69816
大学	-8.6982
二人の	-8.69863
そんなに	-8.69956
ですよ	-8.69967
病	-8.70003
たり	-8.70034
の間	-8.70059
などは	-8.7007
うち	-8.70214
自分で	-8.70216
切り	-8.70231
に向って	-8.70332
しよう	-8.7034
自分を	-8.70351
られて	-8.70657
人を	-8.70728
かく	-8.70735
三人	-8.70853
思った	-8.7097
考えた	-8.71174
ぼく	-8.71306
ぐらい	-8.71456
平岡は	-8.71467
説明	-8.71485
無い	-8.71602
僕	-8.71846
へ行って	-8.71848
実に	-8.71865
付け	-8.71879
吾輩の	-8.71899
心持	-8.72098
らしく	-8.72109
もので	-8.72516
笑い	-8.72591
掛け	-8.726
間に	-8.7267
いよいよ	-8.72673
難	-8.72675
だよ	-8.72678
二人は	-8.72684
とにかく	-8.72729
つまり	-8.72769
半分	-8.72772
代	-8.72866
結果	-8.73059
黒い	-8.73141
遠	-8.73195
兄は	-8.73248
にある	-8.73254
かけて	-8.73393
打ち	-8.7353
広田先生	-8.73607
かと	-8.73722
文	-8.73811
ッ	-8.7393
形	-8.73935
候	-8.73951
相談	-8.73959
大いに	-8.73989
める	-8.74117
廻	-8.7429
近	-8.74757
どうです	-8.74798
でない	-8.74836
抜	-8.7485
を見た	-8.74936
論	-8.75062
折	-8.75117
これが	-8.75172
くれた	-8.75184
薬	-8.75196
わざわざ	-8.75215
校長	-8.75216
黙って	-8.75238
暮	-8.75356
寒月君	-8.75402
はず	-8.7571
書いて	-8.75736
茶	-8.75843
の上へ	-8.75979
癖	-8.76162
ですから	-8.76174
宿	-8.76342
与次郎	-8.76442
業	-8.76474
腰	-8.76487
夫婦	-8.76504
運動	-8.76533
眠	-8.76569
ても	-8.76728
そこに	-8.76783
金を	-8.76948
誰	-8.77307
ア	-8.77313
開	-8.77349
書斎	-8.77349
見えた	-8.77432
ゆ	-8.77505
取って	-8.77636
場合	-8.77684
品	-8.77724
無論	-8.77746
左	-8.77771
なるべく	-8.77779
・	-8.7779
与次郎が	-8.77975
物を	-8.77977
二十	-8.7802
のみ	-8.78157
さあ	-8.78427
つく	-8.78463
もっと	-8.78502
らず	-8.78549
しながら	-8.78922
円	-8.78932
気の毒	-8.78957
ごとく	-8.78957
使	-8.78979
言葉を	-8.79013
ここ	-8.79025
すべて	-8.79098
恋	-8.7911
のだから	-8.79139
のうちに	-8.79169
いま	-8.7917
失	-8.79224
やった	-8.79396
だした	-8.79521
感じ	-8.79586
などと	-8.79624
主人が	-8.7965
もう少し	-8.79903
けた	-8.80041
一種の	-8.80129
畳	-8.80179
をしている	-8.80242
かけた	-8.80316
活	-8.80362
帯	-8.80429
火	-8.80439
らん	-8.80466
だか	-8.80531
そうです	-8.80571
わざと	-8.80672
番	-8.80932
吾輩	-8.81377
丸	-8.81408
心を	-8.81463
上げた	-8.81502
若い	-8.81552
らぬ	-8.81571
そのうち	-8.81701
叔父	-8.81705
影	-8.81715
我	-8.81742
馬	-8.81774
非常に	-8.8178
ヴァイオリン	-8.81802
なんだ	-8.81813
むしろ	-8.81822
向こう	-8.81905
笑った	-8.82293
三四郎が	-8.82433
根	-8.82626
前へ	-8.82717
こそ	-8.82848
右	-8.83061
交	-8.83143
込む	-8.83165
身体	-8.83217
読んで	-8.83407
つけ	-8.83509
夢	-8.83565
持って	-8.83718
手紙を	-8.83818
野々宮さん	-8.84012
離	-8.84153
時代	-8.8417
厭	-8.8418
何の	-8.84266
背	-8.84302
段	-8.84429
紙	-8.84459
然し	-8.84775
にいる	-8.84999
いで	-8.85006
不安	-8.85123
いいえ	-8.85248
何にも	-8.85252
覚	-8.85355
答えた	-8.8567
る事	-8.85809
鏡	-8.85845
嫌	-8.85883
んだろう	-8.85929
弱	-8.85945
百	-8.85946
額	-8.8595
記憶	-8.85957
損	-8.85973
散歩	-8.8598
小供	-8.85995
の前に	-8.86
酒	-8.86028
一寸	-8.86046
切れ	-8.86059
目的	-8.86188
声が	-8.86262
自然	-8.8632
梅子は	-8.86646
山嵐	-8.8678
の中へ	-8.86786
巻	-8.86948
云い	-8.8712
姿	-8.87361
寺	-8.8739
婆さん	-8.8741
こう云う	-8.87541
この間	-8.87571
広い	-8.87652
他	-8.8801
金田	-8.88018
なし	-8.88213
歩	-8.8836
耳	-8.88533
るように	-8.88572
おや	-8.88597
なければならない	-8.88671
釣	-8.88754
側	-8.88767
定	-8.88776
イ	-8.88799
ちょうど	-8.8883
世界	-8.88845
嫁	-8.8885
承知	-8.88852
自身	-8.88873
一度	-8.88895
なくって	-8.88902
どうせ	-8.89003
云って	-8.89079
読み	-8.89091
首を	-8.89194
食う	-8.89246
暗い	-8.89461
座敷	-8.89621
梅子	-8.89638
ではなかった	-8.89682
寒月	-8.89844
礼	-8.9016
くなる	-8.90194
店	-8.90311
勉強	-8.90312
はまだ	-8.90314
疑	-8.90523
曲	-8.90645
つけた	-8.90802
帰	-8.91108
わない	-8.91144
誰も	-8.91208
になると	-8.91219
食い	-8.91268
二つ	-8.91283
前の	-8.91289
ずる	-8.91348
化	-8.91351
わけ	-8.91369
だの	-8.91393
必ず	-8.91445
電車	-8.91545
毛	-8.91724
質	-8.91768
まえ	-8.91791
書生	-8.91911
すれば	-8.91935
離れ	-8.91975
今の	-8.92165
家に	-8.92181
はじめて	-8.92447
計	-8.92471
その上	-8.92478
ここに	-8.92496
ついに	-8.92581
んでしょう	-8.92644
男は	-8.92755
どこか	-8.9284
はもう	-8.92883
台	-8.92897
門野	-8.929
同時に	-8.92946
声を	-8.93093
記	-8.93206
義	-8.93231
チ	-8.933
解釈	-8.93301
夏	-8.93325
社会	-8.93328
へ出て	-8.93385
あと	-8.93586
いえ	-8.93607
いって	-8.93638
絶	-8.93645
いつも	-8.94006
喧嘩	-8.94013
気分	-8.94126
信	-8.94672
結	-8.94774
愚	-8.948
草	-8.94837
奇	-8.9484
橋	-8.94843
※	-8.94845
迷惑	-8.94847
銭	-8.94847
させる	-8.94856
に違いない	-8.94882
医者	-8.94919
驚いた	-8.94924
名前	-8.95125
はい	-8.95387
いつでも	-8.95482
思われ	-8.95573
的に	-8.95797
ようだ	-8.95965
なもの	-8.96047
と同じ	-8.96068
やり	-8.96141
急	-8.96152
乗	-8.96239
わたし	-8.96282
追	-8.96335
受け	-8.96519
こういう	-8.96543
動か	-8.96577
の方が	-8.96658
あなたの	-8.96771
と見えて	-8.9686
死んだ	-8.97064
ぎり	-8.97115
一人で	-8.97213
のかい	-8.97267
うと	-8.97287
美禰子は	-8.97631
辺	-8.97681
都合	-8.97817
返事を	-8.97887
聴	-8.97965
血	-8.97996
洗	-8.98009
勇気	-8.98016
今度	-8.98023
笑いながら	-8.98103
くなって	-8.98149
女が	-8.98187
奥さんの	-8.98213
云うと	-8.98342
しても	-8.98344
出来る	-8.98452
ところを	-8.98488
西洋	-8.98499
しまう	-8.9859
へえ	-8.98617
長く	-8.98694
ものである	-8.98824
上に	-8.98912
の中	-8.99026
したら	-8.99062
答	-8.99089
転	-8.99206
君が	-8.99224
弁	-8.99356
の事を	-8.99423
だろうと	-8.99424
対	-8.99436
所で	-8.99522
なか	-8.99557
参	-8.99579
至	-8.99579
敵	-8.99589
状	-8.99614
二階	-8.99621
の如く	-8.99721
来ました	-8.99803
の下に	-8.99847
申し	-8.99868
教	-8.99942
何とか	-9.00103
過ぎる	-9.00156
てしまった	-9.00192
ほどの	-9.00308
然	-9.00316
出し	-9.00458
ってる	-9.00477
いろいろ	-9.00489
んだが	-9.00534
傍	-9.00541
談	-9.00547
越	-9.00815
でございます	-9.00893
割	-9.00933
九	-9.00981
集	-9.00993
窓	-9.01017
汽車	-9.01054
退	-9.01234
松	-9.01256
要	-9.01256
覚悟	-9.01263
かかる	-9.01263
障子	-9.0128
立つ	-9.01323
満足	-9.01356
さない	-9.01384
そういう	-9.01578
別	-9.01691
わる	-9.01916
吹き	-9.01922
当人	-9.02142
時には	-9.0233
になりました	-9.02552
これも	-9.02677
勝	-9.0276
連	-9.02812
士	-9.02874
終	-9.02909
評	-9.0291
どっち	-9.0292
よりは	-9.03096
せた	-9.03128
吹	-9.03208
七	-9.0327
書いた	-9.03461
気持	-9.03464
立った	-9.03516
乗り	-9.03535
され	-9.03556
どうした	-9.03615
の所へ	-9.03831
おう	-9.03841
寄	-9.03843
普通の	-9.0393
狂	-9.03972
でもない	-9.04152
んでいる	-9.04157
冷	-9.04159
他の	-9.04251
便	-9.04317
赤い	-9.0441
その後	-9.04441
果	-9.046
あんまり	-9.04607
大抵	-9.04608
筋	-9.04617
頬	-9.04625
苦痛	-9.04664
男が	-9.04698
つもりで	-9.04755
みると	-9.04799
人間は	-9.04837
家へ	-9.04989
君に	-9.0502
事で	-9.05054
聞か	-9.05063
入れ	-9.05139
昔	-9.05157
言って	-9.0522
ならない	-9.05556
住	-9.05639
異	-9.05745
別に	-9.05802
飯	-9.05859
置	-9.05861
ついて	-9.05976
愉快	-9.06027
と考えた	-9.06088
用事	-9.06094
先生に	-9.06122
何時	-9.0616
不思議	-9.06163
ちゃんと	-9.0624
川	-9.06286
自由	-9.06287
つもり	-9.06309
牛	-9.06328
以上は	-9.06337
精神	-9.06345
箱	-9.06349
2	-9.06352
友達	-9.06355
嘘	-9.06359
殺	-9.06409
突き	-9.06802
飲んで	-9.06817
ならば	-9.06902
上げ	-9.07292
先へ	-9.0735
遣	-9.07697
母の	-9.07795
残	-9.07899
つけて	-9.07912
泥棒	-9.08049
リ	-9.08061
在	-9.08065
尻	-9.08072
骨	-9.08074
舌	-9.08084
だんだん	-9.08089
師	-9.0809
皆	-9.08093
理由	-9.08098
腕	-9.08101
迷	-9.08107
学問	-9.08108
御父さん	-9.08109
呼び	-9.08114
入れて	-9.08393
珍	-9.08462
分らない	-9.08592
まって	-9.08604
卒業	-9.08648
へ来て	-9.08649
老	-9.08818
落ち	-9.0883
せて	-9.08911
上げて	-9.08991
恐れ	-9.09004
ことを	-9.09154
だけに	-9.0917
すでに	-9.09194
美	-9.09377
鼻を	-9.09399
悪く	-9.09609
のだが	-9.0966
句	-9.0967
調	-9.09729
這入って	-9.0977
田	-9.09781
共	-9.09799
反	-9.09847
雲	-9.09879
見え	-9.09881
式	-9.09884
冗談	-9.09885
椅子	-9.0989
帽子	-9.09903
先刻	-9.0994
逃げ	-9.09977
なくっちゃ	-9.10101
美禰子の	-9.10269
と云い	-9.10393
懸	-9.10449
くて	-9.10457
笑って	-9.10635
行か	-9.10685
細	-9.1074
御前	-9.10939
自分には	-9.1096
まして	-9.10995
早	-9.11031
の底	-9.1117
着物	-9.11217
下女	-9.11276
の方で	-9.11281
てくれ	-9.11302
っても	-9.11311
現	-9.11424
際	-9.11569
己	-9.1161
筆	-9.11666
昼	-9.1168
してしまった	-9.1168
はなはだ	-9.11686
ク	-9.11697
存在	-9.11699
欠	-9.11709
穴	-9.11709
往来	-9.11711
ヒラメ	-9.11714
くって	-9.11793
を出して	-9.1182
ちっとも	-9.11887
振	-9.12081
もなかった	-9.12272
善	-9.12292
などを	-9.12518
事情	-9.12535
買って	-9.12688
立っている	-9.12752
だな	-9.12769
抜け	-9.12936
当時	-9.12967
僕が	-9.12969
土	-9.13101
目を	-9.13105
隣	-9.13208
田舎	-9.13217
足を	-9.13236
満	-9.13444
姉	-9.13502
座	-9.1351
末	-9.13532
遅	-9.13537
別段	-9.13549
責任	-9.13554
多少	-9.13572
美しい	-9.13595
新しい	-9.13665
口に	-9.13742
見ている	-9.13769
するのは	-9.13805
話した	-9.13993
講義	-9.1419
敷	-9.14313
おれが	-9.14322
になり	-9.14375
そば	-9.14776
然と	-9.14797
からだ	-9.14857
板	-9.14948
もんだ	-9.15055
次第に	-9.15145
掛けた	-9.15169
書き	-9.15175
話す	-9.15231
気を	-9.15292
望	-9.15322
夕	-9.15357
云	-9.15364
快	-9.15381
経	-9.15387
墓	-9.15395
図	-9.15438
留守	-9.15442
願	-9.1545
節	-9.15452
運命	-9.15461
たくさん	-9.15512
一杯	-9.15523
二度	-9.15594
色々	-9.15614
くれる	-9.15639
原口さん	-9.15662
りません	-9.15694
なれば	-9.15701
流れ	-9.15702
男だ	-9.15798
付けて	-9.15981
の様に	-9.15986
元来	-9.16017
この男	-9.16036
込み	-9.16071
ところへ	-9.16159
しまい	-9.16246
を見ると	-9.16364
自己	-9.1644
所に	-9.16534
切って	-9.1661
の方に	-9.16637
さっき	-9.16649
かれ	-9.16701
します	-9.16769
それだけ	-9.16789
青	-9.1686
過	-9.16992
しき	-9.1709
観	-9.17277
到底	-9.17339
幾	-9.17351
素	-9.17352
令嬢	-9.17352
始め	-9.17355
経験	-9.17358
是非	-9.17369
事だ	-9.1742
親切	-9.17424
であろう	-9.17471
が悪い	-9.17842
た時	-9.18013
友人	-9.18208
外に	-9.18355
判然	-9.18382
ついた	-9.18447
▁自分は	-9.18537
風に	-9.1867
あいだ	-9.18728
三日	-9.18732
ないと	-9.18771
熱	-9.18821
部	-9.19105
刻	-9.19177
からである	-9.19207
そうか	-9.19259
鼠	-9.19301
任	-9.19311
我慢	-9.19314
香	-9.19323
依然として	-9.19324
歯	-9.19333
昨日	-9.19374
ところで	-9.19401
へ出た	-9.1944
研究	-9.19468
あるいは	-9.19508
いかん	-9.19582
でき	-9.19594
なので	-9.19595
構	-9.19608
門野は	-9.19682
一体	-9.19797
書物	-9.19924
面倒	-9.20021
休	-9.20027
かける	-9.20205
合せ	-9.20275
のため	-9.20384
はいって	-9.20391
突	-9.20491
自分も	-9.20551
よし	-9.20723
感じた	-9.20817
主	-9.20858
顔をして	-9.20938
少	-9.20966
懐	-9.21048
考	-9.21082
づ	-9.21083
種	-9.21155
いても	-9.21173
運	-9.21197
知れ	-9.2121
社	-9.21225
復	-9.21298
船	-9.213
フ	-9.21311
打ち明け	-9.21321
反対	-9.21326
暇	-9.21327
映	-9.21328
春	-9.2133
約束	-9.21333
未来	-9.2134
性質	-9.21356
むずかしい	-9.21413
々と	-9.21447
違う	-9.21451
先生と	-9.2153
と云いながら	-9.2158
今日まで	-9.21649
山嵐は	-9.21776
東京へ	-9.2181
所を	-9.22571
頭が	-9.2259
本当に	-9.22727
るべき	-9.22749
おいて	-9.22764
苦しい	-9.22781
少しも	-9.22787
ふと	-9.22806
野	-9.22874
買	-9.22914
▁それから	-9.23014
気の	-9.23069
自覚	-9.23119
困	-9.23217
更	-9.23283
存	-9.23298
市	-9.2335
よっぽど	-9.23356
約	-9.23357
波	-9.23364
シ	-9.23365
歌	-9.23367
煙草	-9.23369
写真	-9.23373
失敬	-9.23378
随分	-9.23379
のだろう	-9.23465
段々	-9.2347
置いた	-9.23609
傍に	-9.23673
があるから	-9.23741
とき	-9.23792
すこぶる	-9.23836
▁先生は	-9.23847
一向	-9.23869
を引き	-9.23886
らなかった	-9.23898
動く	-9.23911
底	-9.23946
問	-9.24083
やめ	-9.24097
とても	-9.24115
もいい	-9.24262
軽	-9.24272
にならない	-9.24334
あとで	-9.24472
来ない	-9.24719
きました	-9.24745
張り	-9.24767
肩	-9.24785
思って	-9.24821
上が	-9.25003
広	-9.25043
迷亭君	-9.25187
息	-9.25192
寒	-9.25233
竹	-9.25237
調子で	-9.25293
原	-9.25301
故	-9.25306
娘	-9.25406
遠慮	-9.25414
散	-9.25421
議論	-9.25437
希望	-9.25447
のでしょう	-9.25471
一日	-9.25492
投げ	-9.25522
はあ	-9.25579
あって	-9.25642
与次郎の	-9.25697
具合	-9.25698
付けた	-9.25856
かも知れません	-9.25857
変化	-9.26034
何とも	-9.26039
下さい	-9.26043
明日	-9.26099
すべき	-9.26122
どうする	-9.26247
極めて	-9.26261
たく	-9.26337
それも	-9.26386
ようと	-9.26442
よほど	-9.26558
出て来た	-9.26583
わし	-9.26676
勧め	-9.26682
かけ	-9.26721
詩	-9.26725
どうだ	-9.26729
僕も	-9.2682
ほうが	-9.26886
忘れ	-9.26921
になっている	-9.26931
上げる	-9.26983
一言	-9.27188
できない	-9.27259
留め	-9.27342
達	-9.27467
を聞いて	-9.27505
短	-9.27538
ぼんやり	-9.27554
坂	-9.2756
池	-9.27568
せっかく	-9.27571
烈	-9.27572
つける	-9.27573
親爺	-9.27574
だいぶ	-9.27576
はありません	-9.27579
幸福	-9.2759
まったく	-9.27597
常	-9.27637
一枚	-9.27639
ことごとく	-9.27642
とおり	-9.27711
代助が	-9.2772
独仙君	-9.27759
焼	-9.27813
昔し	-9.27977
わたしは	-9.28
なった	-9.28059
それほど	-9.28089
心に	-9.28176
まし	-9.28304
と思ったら	-9.28332
自己の	-9.28542
ろうと	-9.28555
な事	-9.28565
怒	-9.28579
静かな	-9.28674
の下	-9.28684
いだ	-9.28709
問い	-9.28716
込	-9.2872
られない	-9.28784
せん	-9.29212
食べ	-9.29323
事はない	-9.2936
髪	-9.29395
全	-9.29426
いかに	-9.29446
済	-9.29508
いると	-9.29516
はまるで	-9.29526
坐って	-9.29664
ト	-9.29684
列	-9.29724
その日	-9.29733
教育	-9.29737
によると	-9.29745
に相違ない	-9.29751
再び	-9.29756
信用	-9.29811
得意	-9.29819
三度	-9.29836
心持ち	-9.29889
昔の	-9.29905
知っている	-9.29909
気味	-9.29938
やろう	-9.30015
知らず	-9.30053
なんです	-9.30066
なさる	-9.30082
二三	-9.30127
たった	-9.30386
うまい	-9.30502
眼に	-9.30577
メロスは	-9.30662
と思い	-9.31087
脳	-9.31439
ければ	-9.31452
ざる	-9.31491
若	-9.316
彼等	-9.31603
世話	-9.31639
能	-9.31667
父が	-9.31673
処	-9.31775
次	-9.31794
逆	-9.31804
気で	-9.3189
類	-9.31915
否	-9.31945
附	-9.3196
陰	-9.31964
博士	-9.31965
相変らず	-9.31978
吐	-9.3198
えらい	-9.31987
小さい	-9.31991
尤も	-9.31994
たいてい	-9.31997
平気で	-9.32065
じっと	-9.32089
ったり	-9.32135
方面	-9.322
高く	-9.3226
ではありません	-9.32623
ずつ	-9.32632
あげ	-9.3274
掛けて	-9.3279
進んで	-9.32853
できる	-9.32855
者は	-9.32914
だと思った	-9.3292
ばかりで	-9.3293
でしょうか	-9.33017
入口	-9.33221
かれた	-9.33245
もあった	-9.33452
喜	-9.33609
首	-9.33664
入り	-9.3368
代助には	-9.33821
目の	-9.3389
内に	-9.33899
家を	-9.33968
似	-9.33988
までは	-9.34108
:	-9.34138
仕事	-9.34189
良	-9.34218
猶	-9.34231
涙	-9.34234
生涯	-9.34244
干	-9.34251
なくては	-9.34255
羽織	-9.34261
神経	-9.34263
ついでに	-9.34269
許	-9.34273
飲んだ	-9.34303
兄さん	-9.34412
行こう	-9.34536
うらなり君	-9.34575
続	-9.34692
たって	-9.34813
強	-9.34817
乱暴	-9.34845
想像	-9.34929
働	-9.35226
破	-9.35306
坐	-9.35364
歩いて	-9.35523
と云うのは	-9.35575
あなたに	-9.35586
なって	-9.35605
上って	-9.35646
野々宮	-9.35931
ないから	-9.36134
なくなる	-9.36172
代りに	-9.36234
奥	-9.36235
それより	-9.36239
毎	-9.36312
機	-9.36401
るのが	-9.36503
減	-9.36519
鉢	-9.36553
官	-9.36555
野々宮君	-9.36556
習	-9.36562
弾	-9.36569
雑誌	-9.36571
過去	-9.36575
差	-9.36585
鼻の	-9.3663
尋ね	-9.3671
驚ろいた	-9.36718
みて	-9.36753
不平	-9.36754
あたり	-9.36925
寐	-9.36929
笑う	-9.36954
心の	-9.3701
なあ	-9.37237
大に	-9.37292
って来た	-9.37293
いていた	-9.3736
を着て	-9.37364
静か	-9.37376
あの時	-9.37425
覚え	-9.37613
頭に	-9.37721
に行った	-9.37749
へ出	-9.37751
見せ	-9.37844
友	-9.37878
頼	-9.37941
かと思うと	-9.38005
その頃	-9.38005
机	-9.38031
かかって	-9.3818
たいへん	-9.38285
妙	-9.38309
水を	-9.38401
待って	-9.38493
方は	-9.38615
上がって	-9.38621
知ってる	-9.38766
かったのです	-9.38879
午	-9.38893
代助も	-9.38908
太	-9.38918
糸	-9.38919
棒	-9.38937
最初	-9.38941
照	-9.38946
カ	-9.38948
鉄	-9.38949
寧ろ	-9.38952
軽蔑	-9.38954
煙	-9.38957
模様	-9.38964
玉	-9.38972
間違	-9.3909
毎日	-9.39112
と思います	-9.3916
んだよ	-9.39167
後ろ	-9.39201
深い	-9.39202
置く	-9.39306
とすれば	-9.3948
彼ら	-9.39484
本当	-9.3953
並	-9.39664
そこへ	-9.39669
たしか	-9.39756
誰か	-9.39788
せない	-9.39818
の方を	-9.39838
くらいに	-9.39844
得る	-9.39966
飲み	-9.39986
あれは	-9.40251
まる	-9.40279
ほう	-9.40287
ひとり	-9.40289
乱	-9.40294
事がない	-9.40342
と代助は	-9.4052
構わない	-9.40531
決	-9.40541
を受け	-9.4064
なくっても	-9.40696
大丈夫	-9.40831
馬鹿に	-9.40887
違い	-9.4096
なのです	-9.41265
の為に	-9.41286
起き	-9.41295
顔は	-9.41307
ぽ	-9.41315
ばか	-9.4135
ド	-9.41352
籠	-9.41361
其所	-9.41364
杉	-9.41378
たちまち	-9.41381
を以て	-9.41386
富	-9.41394
かもしれない	-9.41396
財産	-9.41396
甘	-9.41398
!	-9.41401
始終	-9.41401
誠太郎	-9.41404
交際	-9.41416
不幸	-9.41417
興味	-9.41424
いらっしゃる	-9.41523
そんな事を	-9.4159
教頭	-9.41607
兄が	-9.41613
然として	-9.41769
真面目	-9.41919
すと	-9.42154
もしない	-9.42156
消	-9.42266
を眺め	-9.42276
安心	-9.42344
ですが	-9.42376
過ぎ	-9.42383
というもの	-9.42418
一本	-9.42454
三四郎に	-9.42487
だれ	-9.42678
入って	-9.42748
駄目	-9.42771
日は	-9.42784
にとって	-9.428
となく	-9.42808
っちゃ	-9.4287
男である	-9.42906
ありません	-9.42925
らした	-9.42982
しなかった	-9.43117
生きている	-9.43131
人物	-9.43287
去	-9.43322
読む	-9.43341
古い	-9.43446
十五	-9.43474
るほど	-9.43507
細君は	-9.43514
の中から	-9.43615
声で	-9.43633
らして	-9.43678
描	-9.43718
しゃ	-9.43761
里	-9.43784
露	-9.43797
東	-9.43801
きて	-9.43807
服	-9.43845
俗	-9.43859
無暗に	-9.4386
ぴ	-9.43869
壁	-9.43871
軍	-9.43871
産	-9.43877
談判	-9.43882
いらっしゃい	-9.43883
縄	-9.43885
意識	-9.43886
村	-9.43888
レ	-9.4389
狸	-9.43898
明治	-9.43915
充分	-9.43943
活動	-9.43957
程度	-9.43996
であったが	-9.44009
何故	-9.44027
狭い	-9.44076
通る	-9.44089
芸者	-9.4409
沈	-9.44174
顔が	-9.44299
者が	-9.44324
りながら	-9.44406
考える	-9.44579
行かない	-9.44582
と云ったら	-9.4459
同じ事	-9.44629
負	-9.44658
のうちで	-9.44757
大方	-9.44762
限り	-9.44828
したり	-9.44848
妻君	-9.44853
駄目だ	-9.44884
を取って	-9.45006
後で	-9.45065
くらいな	-9.45083
決心	-9.45127
合い	-9.45225
酔	-9.45249
何が	-9.45344
▁父は	-9.45351
母が	-9.45394
付いて	-9.45504
違	-9.45595
聞いていた	-9.45789
代助に	-9.4579
考えると	-9.45814
をやる	-9.45816
具	-9.46023
積	-9.46055
遊び	-9.46078
て来た	-9.46135
組	-9.46346
脱	-9.46373
返す	-9.46397
女に	-9.464
界	-9.464
旅	-9.46402
膝	-9.4641
尊敬	-9.46416
尾	-9.4642
某	-9.46431
ロ	-9.46441
精	-9.46448
雪江さん	-9.46449
色の	-9.4645
届	-9.46455
拭	-9.46456
袖	-9.46458
伺	-9.46458
ばかりである	-9.46463
輪	-9.46464
高等学校	-9.46473
襖	-9.46476
科	-9.46483
知らぬ	-9.46515
ありました	-9.46565
と共に	-9.46582
わかる	-9.4661
してくれ	-9.46613
東風君	-9.46622
易	-9.46758
当分	-9.46762
兄の	-9.4677
次の	-9.46781
腹の中で	-9.46825
まれ	-9.4684
らし	-9.46898
と云うと	-9.46997
おく	-9.47005
かろう	-9.47073
横に	-9.47092
台所	-9.47114
貰う	-9.47116
開いて	-9.47152
ったら	-9.47338
とかいう	-9.47357
静かに	-9.47395
やしない	-9.47398
単	-9.47399
だけが	-9.47501
勝手	-9.47544
助	-9.47552
彼を	-9.47835
万	-9.47876
心得	-9.47886
よい	-9.48027
戻	-9.48172
詰	-9.48448
思い出した	-9.48469
奥さんが	-9.48484
学校の	-9.48495
静	-9.48524
かつ	-9.48592
途	-9.48688
赤シャツは	-9.48695
来てくれ	-9.48697
聞くと	-9.48736
遠く	-9.48763
関	-9.48774
衣	-9.48797
知り	-9.48833
自分と	-9.48857
役	-9.48865
返して	-9.48874
において	-9.48894
していました	-9.48902
丁	-9.48906
垣	-9.48934
と言い	-9.49009
報	-9.49038
及	-9.49041
守	-9.49052
幅	-9.49059
王	-9.49069
京	-9.49073
といっしょに	-9.49075
と云うから	-9.49075
三四郎も	-9.49077
千	-9.49078
矛盾	-9.49085
a	-9.49091
恐怖	-9.49091
費	-9.49091
堂	-9.49093
o	-9.49095
のみならず	-9.49096
電報	-9.49102
残念	-9.49109
縁側	-9.49126
事を云う	-9.4918
不愉快	-9.49184
小説	-9.49218
しまいました	-9.49224
は無論	-9.49289
ていました	-9.4929
おもしろい	-9.49292
という言葉	-9.49366
あなたが	-9.49591
顔の	-9.49638
逢った	-9.49702
付いた	-9.49722
両方	-9.49748
前後	-9.49842
んじゃない	-9.49898
その晩	-9.49933
なんだか	-9.50014
らしかった	-9.5017
知ら	-9.50184
内供は	-9.5043
余り	-9.50486
の光	-9.50516
生れた	-9.50538
中学	-9.50561
出ている	-9.50601
質問	-9.50727
今夜	-9.50738
仕方がないから	-9.50754
本人	-9.50756
日に	-9.50866
しようと	-9.50971
ここへ	-9.51018
泣き	-9.51031
起る	-9.51103
へ行った	-9.51138
よし子	-9.51357
奥さんに	-9.51361
だろうが	-9.51369
か分らない	-9.5137
茶の間	-9.51392
悲し	-9.51506
宅へ	-9.51533
受ける	-9.51534
つつある	-9.51576
聞いている	-9.51579
へ行く	-9.51606
のうち	-9.51629
のですが	-9.51634
前から	-9.51692
員	-9.5175
軒	-9.51769
傷	-9.51772
犬	-9.51778
策	-9.5178
布	-9.5178
最後に	-9.51789
筈	-9.51791
以上に	-9.51795
だという	-9.51797
が出る	-9.51812
滑稽	-9.51814
論文	-9.51829
左右	-9.51835
己れ	-9.51881
現に	-9.51889
ちと	-9.5205
天下	-9.5206
るんだ	-9.52069
寒月君は	-9.52152
かつて	-9.52196
あて	-9.52219
真似	-9.52289
強く	-9.5229
自ら	-9.52295
下女が	-9.52512
と聞く	-9.52698
帰って来た	-9.527
こうして	-9.52746
野々宮さんは	-9.5279
万事	-9.52817
開けて	-9.52964
椽側	-9.52976
きょうは	-9.53079
苦笑	-9.53087
という事	-9.53096
をつけて	-9.53121
よかった	-9.53129
あとから	-9.53246
引っ	-9.53283
道を	-9.53307
よかろう	-9.5334
這入	-9.53355
合う	-9.53473
野だ	-9.53528
事が出来	-9.53652
たまえ	-9.53765
出しました	-9.53848
んですもの	-9.53855
げた	-9.53891
じゃありません	-9.54082
あります	-9.54105
おいた	-9.54165
▁彼は	-9.54165
先方	-9.54186
秋	-9.54195
ものに	-9.54207
余は	-9.5423
談話	-9.54363
近く	-9.54385
次に	-9.54392
寒い	-9.54476
想	-9.54507
喰	-9.54513
密	-9.54514
線	-9.54515
んだね	-9.54538
支	-9.54546
探偵	-9.54547
怪	-9.54549
邪魔	-9.54552
殆んど	-9.54553
焦	-9.54555
民	-9.54557
免	-9.54558
激	-9.54561
襟	-9.54562
汚	-9.54563
巡査	-9.54569
紅	-9.5457
皮	-9.54571
故郷	-9.54574
芝居	-9.54595
月給	-9.54599
実業家	-9.54599
全体	-9.54601
おやじ	-9.54642
同情	-9.54646
せんだって	-9.5465
踏み	-9.54662
と思ったが	-9.54767
訴え	-9.54775
意見	-9.54823
もまた	-9.54824
暑い	-9.54864
門野が	-9.54903
使い	-9.54951
行くと	-9.54952
本を	-9.54965
次第	-9.54999
考えている	-9.55079
させ	-9.55097
止	-9.55157
取った	-9.55184
ゆく	-9.55271
懸け	-9.55408
見当	-9.5553
移	-9.55541
あれば	-9.55569
寄って	-9.55607
考えていた	-9.55639
このあいだ	-9.5571
大きく	-9.55723
立派な	-9.55755
るか	-9.5584
の色	-9.55862
しろ	-9.55875
立てて	-9.55882
近頃	-9.559
ものはない	-9.5592
合わせ	-9.55922
細い	-9.55959
そうである	-9.56129
彼に	-9.56131
返した	-9.56154
与え	-9.56205
ほかの	-9.56288
外の	-9.5631
茶を	-9.56315
単に	-9.56394
だと思って	-9.56401
は全く	-9.56437
えない	-9.56506
負け	-9.56538
ようになった	-9.56566
無理に	-9.56616
金は	-9.56674
降り	-9.56718
積り	-9.5672
明らかに	-9.56884
疲れ	-9.5692
なんぞ	-9.5699
従	-9.57046
号	-9.57076
養	-9.5712
座敷へ	-9.57173
るところ	-9.57177
特	-9.57193
たのです	-9.57277
会った	-9.57315
徳	-9.57364
毒	-9.57379
明瞭	-9.57381
価	-9.57402
永	-9.5741
隅	-9.57414
西	-9.57416
枕	-9.57416
状態	-9.57416
眉	-9.57419
劇	-9.57421
意志	-9.57433
甲	-9.57434
.	-9.57434
比較的	-9.57475
思い切って	-9.57481
送って	-9.57487
我々	-9.57512
げて	-9.5752
さえすれば	-9.57563
或る	-9.57607
偉い	-9.57629
二人とも	-9.57642
といいました	-9.5765
能く	-9.57756
今でも	-9.57792
おれも	-9.57872
そんな事	-9.57903
平生	-9.57961
同様	-9.57967
といい	-9.57994
るような	-9.57999
ようなもの	-9.58035
も何も	-9.58174
遊	-9.58177
教え	-9.58202
身を	-9.58316
誰が	-9.58324
どうでも	-9.58364
見ていた	-9.58378
ばかりだ	-9.58502
見えない	-9.58556
話して	-9.58639
いながら	-9.58644
困った	-9.58679
差し	-9.5869
上から	-9.58712
なくなって	-9.58809
黙っていた	-9.5886
何だ	-9.58945
それまで	-9.59028
だろうか	-9.59114
感じが	-9.59122
ないので	-9.59186
を忘れ	-9.59441
消え	-9.5971
▁女は	-9.5977
のかと	-9.59815
欲	-9.59851
わり	-9.59961
応	-9.60109
食った	-9.60115
りして	-9.60195
箸	-9.60237
大事	-9.60256
ますから	-9.6026
針	-9.60279
講	-9.60287
タ	-9.60308
茶碗	-9.60319
演	-9.60324
題	-9.60328
ひどい	-9.60335
マ	-9.60337
増	-9.60339
劣	-9.60342
ニ	-9.60349
怖	-9.60354
遺	-9.60356
習慣	-9.60356
サ	-9.60362
摩	-9.60363
蔵	-9.60365
袴	-9.60366
勘定	-9.60372
しかたがない	-9.60373
最後の	-9.60374
図書館	-9.60377
過ぎて	-9.60383
幕	-9.60389
馳け	-9.60395
沢山	-9.60403
ことによると	-9.60429
表情	-9.60433
それぎり	-9.60459
凡て	-9.60472
によって	-9.60558
にくい	-9.60563
ごろ	-9.60563
というのは	-9.60601
却って	-9.60635
の奥	-9.6067
臭い	-9.60847
しばらくして	-9.60899
父と	-9.6091
買った	-9.61029
過ぎた	-9.61061
ならん	-9.61221
事もある	-9.61237
それだから	-9.61368
日本の	-9.61465
生き	-9.61499
すぐに	-9.61512
いざ	-9.61587
誘	-9.61625
▁平岡は	-9.61766
凝と	-9.61864
生きて	-9.61988
寸	-9.61995
限	-9.62205
赤シャツが	-9.62229
向き	-9.62274
に行く	-9.6231
入った	-9.6255
たびに	-9.62607
為に	-9.62746
を見る	-9.62814
所は	-9.62863
来た時	-9.62865
一所に	-9.6288
蕎麦	-9.63148
かかった	-9.63183
文学	-9.63217
食わ	-9.63218
柄	-9.63262
踏	-9.63291
仰	-9.6332
封	-9.63355
興	-9.63363
に於て	-9.63366
賛成	-9.63373
ようです	-9.63374
森	-9.63379
術	-9.63384
谷	-9.63387
廊下	-9.63396
器	-9.63396
とうてい	-9.63397
泊	-9.63401
恥	-9.63402
なものだ	-9.63402
柱	-9.63404
/	-9.63406
じつは	-9.63406
窮屈	-9.63407
始末	-9.63411
皿	-9.63413
主義	-9.6342
つまらない	-9.63422
思わず	-9.63456
もありません	-9.63459
自白	-9.63461
大きい	-9.63468
頼む	-9.63476
と言いながら	-9.63486
うしろ	-9.63531
逢う	-9.6354
地位	-9.63548
叔父さん	-9.63571
かって	-9.63639
倒	-9.63678
つかない	-9.63682
出ない	-9.63715
と思いました	-9.63726
苦沙弥君	-9.63734
書いてある	-9.63776
隣り	-9.63871
一度に	-9.63893
耳に	-9.64041
なんでも	-9.64052
少しは	-9.64071
十円	-9.64099
世の中に	-9.64123
近づ	-9.64183
んですから	-9.64295
持って来た	-9.64406
ときに	-9.64436
そら	-9.64495
さすがに	-9.64528
来い	-9.64548
いかにも	-9.64559
可い	-9.6459
鈴木君	-9.64613
頼んで	-9.64655
のなかに	-9.64689
三千代を	-9.64754
確	-9.64815
かしら	-9.6482
食って	-9.64893
内供	-9.6498
の方は	-9.65014
新聞を	-9.65052
生れ	-9.65095
時計	-9.65096
十年	-9.65139
を買って	-9.65149
赤く	-9.65204
他人	-9.65307
ことは	-9.65311
よそ	-9.65345
そんなら	-9.65405
ここで	-9.65467
並んで	-9.65502
知らん	-9.65612
の結果	-9.65615
おいで	-9.65703
なんだから	-9.66004
私はその	-9.66073
の上を	-9.66078
取る	-9.66081
包	-9.66098
お嬢さんは	-9.66098
死に	-9.66165
えば	-9.66179
驚ろ	-9.66249
批評	-9.66371
キ	-9.66469
権	-9.66476
掃除	-9.66481
布団	-9.66496
我々は	-9.66501
枝	-9.66504
境	-9.66512
危険	-9.66513
微	-9.66514
こちら	-9.66521
資格	-9.66522
坊主	-9.66527
を受けて	-9.6653
3	-9.66531
微笑	-9.66545
機嫌	-9.6655
ヨシ子	-9.6655
例のごとく	-9.66616
連中	-9.66624
済んだ	-9.66709
飛んで	-9.6677
竹一	-9.66772
行為	-9.668
▁主人は	-9.66802
云われ	-9.66819
を出た	-9.66822
はあるまい	-9.66861
三四郎には	-9.67009
らるる	-9.67074
ですな	-9.67139
妙に	-9.6714
先生を	-9.67274
立っていた	-9.67405
りて	-9.67408
そう云う	-9.67493
ものであった	-9.67508
家は	-9.67543
探	-9.67722
遠くから	-9.67779
機会	-9.6781
これでも	-9.67851
売	-9.68018
迎え	-9.68202
に帰	-9.68213
天気	-9.68218
問題を	-9.68279
元気	-9.68321
響	-9.68392
盗	-9.68698
いえば	-9.68725
わるい	-9.68775
を受けた	-9.6881
したのです	-9.68949
ましょうか	-9.69
せずに	-9.69045
的な	-9.69102
に見える	-9.69156
四十	-9.69262
容	-9.69308
真面目に	-9.69333
二人で	-9.69374
格	-9.69464
ならなかった	-9.6961
の顔を見て	-9.69693
改	-9.69701
寄せ	-9.69718
いきなり	-9.69722
旧	-9.69731
膳	-9.69741
いたずら	-9.69742
エリス	-9.69755
服装	-9.69755
太刀	-9.6976
病院	-9.69762
急いで	-9.69765
見れば	-9.69765
案内	-9.69767
仏	-9.69767
閑	-9.69769
に向かって	-9.69769
飲む	-9.69771
あすこ	-9.69772
自殺	-9.69789
宿直	-9.69802
伝	-9.69803
論理	-9.69803
存外	-9.69818
婦人	-9.69873
女性	-9.69973
致	-9.69989
場所	-9.70003
方法	-9.70033
したのは	-9.70073
ないように	-9.701
ぜひ	-9.70181
歩いた	-9.70188
お嬢さんの	-9.70199
みたい	-9.70211
予期	-9.70365
さき	-9.70427
まで来て	-9.70504
は決して	-9.70664
それでいて	-9.70715
入る	-9.70767
色が	-9.70781
という意味	-9.70878
しまって	-9.70887
容易に	-9.70933
知らなかった	-9.70936
顔に	-9.70989
頭は	-9.71029
書く	-9.71129
入れる	-9.71146
にゃ	-9.71254
はじめ	-9.71281
落ちた	-9.71304
とか云う	-9.71321
寝た	-9.71339
今に	-9.71428
かず	-9.71479
きょう	-9.71517
吾	-9.71562
重い	-9.71576
寝て	-9.71621
買い	-9.71769
影が	-9.71914
きながら	-9.7208
病人	-9.72091
貸	-9.72124
女を	-9.72238
書物を	-9.72483
ものではない	-9.72503
好き	-9.72516
勝手に	-9.72577
廻る	-9.72628
下さ	-9.72696
どころ	-9.72739
団子	-9.72763
盛	-9.72767
両人	-9.72878
だとか	-9.72884
仲	-9.72922
写	-9.72983
了	-9.72988
固	-9.72991
沢	-9.72993
辞	-9.73012
足りない	-9.73025
量	-9.73039
承	-9.73054
弟	-9.73054
唐	-9.73059
倍	-9.73061
汗	-9.73064
霊	-9.73065
雪	-9.73066
浜	-9.73073
いつの間にか	-9.73075
魚	-9.73076
欺	-9.73077
雑	-9.73077
貧	-9.73077
局	-9.73078
刺激	-9.73078
演説	-9.73079
退屈	-9.73082
透	-9.73083
佐々木	-9.73084
思想	-9.73086
落ち付いて	-9.73092
訪問	-9.73102
戦争	-9.73106
坊ば	-9.73125
格子	-9.73126
調べ	-9.73137
弁解	-9.73145
会社	-9.73159
失礼	-9.73177
眼鏡	-9.7319
うれし	-9.73201
休み	-9.73229
気狂	-9.73233
やっと	-9.73251
低い	-9.73272
方角	-9.73283
上等	-9.73291
つつ	-9.73406
髪を	-9.73423
着いた	-9.73438
の中を	-9.73482
云え	-9.73525
極め	-9.7353
主人に	-9.73535
ずっと	-9.73558
ようだが	-9.73559
詰め	-9.7357
欲し	-9.73636
歩く	-9.73672
影を	-9.73711
信じていた	-9.73762
妻は	-9.73777
続き	-9.73784
に堪え	-9.73796
さぞ	-9.73846
出て来る	-9.73872
主人も	-9.73897
已め	-9.73914
見せた	-9.7393
うちは	-9.73994
ようでした	-9.74015
出て行った	-9.74033
していない	-9.74122
かと思って	-9.74224
三年	-9.7424
じた	-9.74291
ぼくが	-9.74351
君も	-9.74401
質問を	-9.74432
意気	-9.74569
遣って	-9.74784
しましょう	-9.74909
よし子は	-9.75041
気の毒だ	-9.75089
一時	-9.75239
蔭	-9.75298
のほうが	-9.7548
苦沙弥	-9.75495
遊んで	-9.75557
合って	-9.75568
りゃ	-9.75604
もせず	-9.75659
のだそうだ	-9.75754
持って来て	-9.75788
せられ	-9.75853
迷亭先生	-9.75923
後から	-9.75923
近所	-9.75977
多く	-9.75982
切った	-9.76036
事ができ	-9.76059
芸	-9.76209
の上で	-9.76259
校	-9.76267
から見ると	-9.76273
あの女	-9.7629
此方	-9.76324
ゆる	-9.76341
被	-9.7639
洋	-9.76398
深く	-9.76447
配	-9.76451
飲	-9.76461
兄と	-9.76463
造	-9.76485
冬	-9.76493
袋	-9.76501
マドンナ	-9.76508
6	-9.76509
済まない	-9.76515
銀	-9.76516
一週間	-9.76516
磨	-9.76518
選	-9.76518
浅	-9.76523
南	-9.76526
はっきり	-9.76532
心臓	-9.76533
宗	-9.76534
魂	-9.76536
むやみに	-9.76537
宛	-9.76538
4	-9.76538
5	-9.76538
趣味	-9.76542
陰士	-9.76547
食卓	-9.7655
まさか	-9.76555
こりゃ	-9.76583
っぽ	-9.76593
ところは	-9.76594
お道化	-9.76602
了見	-9.76615
三千代が	-9.76642
特別	-9.76644
上り	-9.76665
青年	-9.76666
学者	-9.76715
告げ	-9.76761
買う	-9.76764
差支え	-9.76842
逆上	-9.76843
然たる	-9.76847
を離れて	-9.76996
見せる	-9.77046
そのまま	-9.77075
して来た	-9.77148
心が	-9.77275
固より	-9.7737
吾輩が	-9.77425
野々宮君は	-9.77429
いくらでも	-9.77471
はずだ	-9.77486
かと思った	-9.77511
あるまい	-9.77567
だけである	-9.77584
好きな	-9.77588
落ちて	-9.77603
張って	-9.77636
おっしゃる	-9.77707
を感じ	-9.77722
無理	-9.77771
尋ねた	-9.77826
平岡が	-9.77917
云えば	-9.7795
かねて	-9.7796
ならぬ	-9.78009
最	-9.78079
下げ	-9.78151
ものじゃない	-9.78185
貰って	-9.78224
しちゃ	-9.7825
ところに	-9.78323
がわるい	-9.78399
をあけて	-9.78426
までも	-9.78431
どこへ	-9.7848
そうさ	-9.78505
座敷の	-9.78505
合った	-9.78517
一年	-9.78607
金田君	-9.78616
話は	-9.78668
ようである	-9.78732
みたいな	-9.7878
平生の	-9.78807
なかに	-9.79152
せい	-9.79222
私はまた	-9.79247
に行って	-9.79284
自然の	-9.79313
そうしてその	-9.79375
へはいった	-9.79445
顔を見	-9.7946
わなかった	-9.79469
観察	-9.79566
面を	-9.79598
分け	-9.79687
悟	-9.79694
致し	-9.79774
却	-9.79787
尺	-9.79872
家で	-9.79971
注	-9.7999
丈夫	-9.8001
意を	-9.80033
予	-9.80038
和	-9.80067
領	-9.80067
趣	-9.80068
寄せて	-9.80071
智	-9.80077
隔	-9.80079
仮	-9.80081
潜	-9.80083
滅多に	-9.80087
厳	-9.8009
戦	-9.80092
停車場	-9.80093
ジ	-9.80094
介	-9.80094
自慢	-9.80097
仕舞に	-9.80098
ネ	-9.801
名誉	-9.80103
灯	-9.80103
漢	-9.80105
禅	-9.80106
依頼	-9.80107
ずいぶん	-9.80107
s	-9.80109
山の芋	-9.8011
に逢って	-9.80113
試験	-9.80116
捨て	-9.8012
感心	-9.80124
現代	-9.80133
主張	-9.80134
下駄	-9.80164
を顧み	-9.80208
未だ	-9.80216
そっと	-9.80227
第二	-9.80229
私はすぐ	-9.80244
ような気がする	-9.80244
返し	-9.80264
に出た	-9.80292
働き	-9.80367
まっ	-9.80381
見えなかった	-9.8039
悟った	-9.80468
個人	-9.80502
たった一人	-9.80578
りする	-9.80589
諸君	-9.80615
黙っている	-9.80629
一時間	-9.80737
させて	-9.80749
並べて	-9.80824
貰った	-9.80838
は必ず	-9.80953
になっていた	-9.80967
さなかった	-9.80977
になります	-9.81032
った時	-9.81122
四五	-9.81158
たしかに	-9.81203
ゃ	-9.81214
この頃	-9.81278
始めから	-9.81392
を得た	-9.8145
此所	-9.81488
判	-9.8167
御三	-9.81694
▁二人は	-9.81785
々しい	-9.81908
事である	-9.8191
に見えた	-9.81959
だと云う	-9.81967
こんな事を	-9.81981
寝ている	-9.82101
母は	-9.82191
ほかに	-9.82226
メロス	-9.82239
ものがある	-9.82284
人間が	-9.82297
かえ	-9.82333
事があった	-9.82341
頭の中に	-9.82382
と云えば	-9.82399
▁奥さんは	-9.82427
頭の中	-9.82449
たとい	-9.82593
んでいた	-9.82611
あとは	-9.82639
が出た	-9.82642
五六	-9.82687
私はこの	-9.82771
変な	-9.8304
ある時	-9.8308
起った	-9.83084
借	-9.83234
給え	-9.83249
余が	-9.83269
五円	-9.83303
飛	-9.83364
倒れ	-9.83408
深	-9.83422
その時分	-9.83499
案	-9.8351
と主人が	-9.83513
舞	-9.8354
周囲	-9.8361
▁おれは	-9.83621
細君の	-9.83679
すら	-9.83716
比較	-9.83728
靴	-9.83763
順	-9.83768
燈	-9.8377
暖	-9.83771
検	-9.83774
射	-9.83782
誤	-9.83782
ウ	-9.83793
察	-9.83795
蒲団	-9.83795
暴	-9.83797
バッタ	-9.83797
コ	-9.83799
ホ	-9.83799
不意に	-9.838
悉く	-9.838
風呂場	-9.83801
桜	-9.83802
ひそかに	-9.83809
挨拶をした	-9.83809
粉	-9.83809
つづけ	-9.83811
札	-9.83811
兵	-9.83813
警察	-9.83818
影響	-9.83819
悪るい	-9.83819
に違ない	-9.83821
頂戴	-9.83839
たまま	-9.83885
言葉が	-9.83891
済む	-9.83903
甚だ	-9.8391
屋根	-9.83916
どうぞ	-9.83934
瞬間	-9.83976
真中	-9.83984
笑い出した	-9.83986
読んだ	-9.83991
一応	-9.84002
はたしかに	-9.84008
分り	-9.84041
れいの	-9.84044
美禰子さん	-9.84068
何処	-9.8407
不思議な	-9.84186
しばらくすると	-9.84214
しまいに	-9.84226
着た	-9.8424
中学校	-9.84246
と思っていた	-9.84254
父に	-9.84264
しなければ	-9.84297
秋の	-9.84319
頼んだ	-9.84332
掻き	-9.84344
人たち	-9.8437
と思っている	-9.84396
ばかりではない	-9.84408
背中	-9.8446
やあ	-9.84499
向うから	-9.84545
と答えて	-9.84546
飯を	-9.84571
奴だ	-9.84635
ものだろう	-9.84679
のですから	-9.84711
まっている	-9.84721
の名を	-9.84726
の事だ	-9.84734
せば	-9.84788
は大分	-9.8479
付ける	-9.84801
気の毒な	-9.84803
無かった	-9.84842
んですよ	-9.84872
わずか	-9.84875
に乗って	-9.849
巻き	-9.84941
男であった	-9.84982
当り	-9.84992
盗人	-9.85032
だったのです	-9.85126
二日	-9.85156
人間に	-9.85226
一般	-9.85228
の顔を見た	-9.85242
たくない	-9.85256
というものは	-9.85352
出て来て	-9.85379
話をする	-9.85428
先に	-9.85512
歩き	-9.85566
ようとする	-9.8563
従って	-9.85645
向い	-9.85736
かせ	-9.85764
▁与次郎は	-9.85807
ようとした	-9.85885
もとの	-9.86004
そんなもの	-9.86005
と尋ね	-9.86043
立てた	-9.86105
念を	-9.86228
いわれ	-9.86268
の前で	-9.86305
聞いてみると	-9.86308
寄り	-9.86471
眼が	-9.86487
刑	-9.86523
迷亭は	-9.8655
だと思う	-9.86609
色を	-9.86688
くらいなら	-9.86692
と見える	-9.86765
来たら	-9.8685
生れて	-9.86964
れている	-9.8699
頼み	-9.86997
を求め	-9.87078
あまりに	-9.87232
動き	-9.87267
野だは	-9.87321
その男	-9.87359
障	-9.87582
優	-9.87596
事にした	-9.87608
泥	-9.87613
呼吸	-9.87617
あたかも	-9.8762
爪	-9.87621
抑え	-9.87623
癒	-9.87629
歳	-9.87629
以外に	-9.8763
登	-9.87631
争	-9.87632
豚	-9.87633
久	-9.87634
鳥	-9.87636
遥かに	-9.87637
荷	-9.87638
比	-9.87642
圧	-9.87642
エ	-9.87643
肌	-9.87643
煩	-9.87644
袂	-9.87644
にやにや	-9.8765
荒	-9.87651
デ	-9.87653
柿	-9.87654
義務	-9.87659
髭	-9.8766
犯	-9.87661
唇	-9.87662
職業	-9.87662
注文	-9.87664
壺	-9.87665
文句	-9.87675
の娘	-9.8769
失敗	-9.87691
まじめ	-9.87693
どこまでも	-9.87697
心のうちで	-9.8774
気がついた	-9.87773
度胸	-9.878
近来	-9.87802
より外に	-9.87808
もんか	-9.8783
ああ云う	-9.87844
:「	-9.8786
読	-9.87933
向うの	-9.87967
下人は	-9.8797
一歩	-9.8797
幸い	-9.88003
このくらい	-9.88104
にしても	-9.88174
当然	-9.88207
威張	-9.88245
その他	-9.88279
接	-9.88282
受け取	-9.88468
事さえ	-9.88595
いつか	-9.88625
が出て	-9.88632
広田先生は	-9.88653
が出来る	-9.88669
つら	-9.88683
はいった	-9.8876
わず	-9.88821
上った	-9.89044
る様に	-9.89083
の間から	-9.89149
気に入	-9.89222
あれで	-9.89381
善く	-9.89415
恐	-9.89501
かも知れないが	-9.89515
させた	-9.89634
と違って	-9.89647
だぜ	-9.89655
知った	-9.8968
るのも	-9.89722
軽く	-9.89803
出で	-9.8982
どれ	-9.89857
一口	-9.89864
の方から	-9.89909
呑	-9.89929
出され	-9.89941
置き	-9.89954
機会を	-9.90082
むろん	-9.90159
聞	-9.90195
留	-9.90202
見せて	-9.90284
鈴木君は	-9.90299
腹が	-9.90421
降	-9.90594
と細君は	-9.90624
と云う事	-9.90651
暑	-9.90846
んだい	-9.90878
宜	-9.90961
十二	-9.90973
くらいだ	-9.9098
挙	-9.91059
者だ	-9.91138
なき	-9.91144
答える	-9.91159
独り	-9.9118
捕	-9.91222
話している	-9.91225
でなければ	-9.91247
独	-9.91262
真面目な	-9.91289
三十	-9.91491
走	-9.91508
如く	-9.91518
忙	-9.91525
になれ	-9.91525
を与え	-9.91529
害	-9.91586
期	-9.91613
視	-9.91616
略	-9.91622
誠	-9.91624
喉	-9.91626
御馳走	-9.91626
忍び	-9.91631
練	-9.91633
うまく	-9.91636
警	-9.91637
栄	-9.91638
文章	-9.91639
罰	-9.9164
険	-9.91641
城	-9.91644
現象	-9.91644
命令	-9.91646
火鉢	-9.91647
羊	-9.91647
催	-9.91647
慾	-9.91649
r	-9.91651
砂	-9.91651
価値	-9.91652
ボ	-9.91652
に依って	-9.91653
商	-9.91654
ツネ子	-9.91655
標	-9.91657
e	-9.91658
i	-9.91659
t	-9.91659
厚	-9.91659
9	-9.9166
相当の	-9.9166
7	-9.9166
昨夜	-9.91662
枕元	-9.91667
油断	-9.91669
洋燈	-9.9167
芸術	-9.9167
やしません	-9.91672
あらゆる	-9.91673
翻訳	-9.91676
判断	-9.91679
権利	-9.91687
心得ている	-9.91697
里見さん	-9.91699
遠慮なく	-9.91716
義理	-9.91728
を感じた	-9.91773
上野	-9.91787
方へ	-9.91791
這	-9.9184
と美禰子が	-9.91853
連れて	-9.91877
どういう	-9.91884
恐ろしい	-9.91977
認めた	-9.92058
繰り返した	-9.92079
三四郎はこの	-9.92241
るや否や	-9.92281
聞こえた	-9.9235
本当の	-9.92364
きたない	-9.92485
青い	-9.92488
乗った	-9.92501
結構	-9.92586
下女は	-9.92655
聞いてみた	-9.92681
ときは	-9.92687
喜んで	-9.92739
と同時に	-9.92798
みました	-9.92848
なりません	-9.92914
遠い	-9.9292
待っている	-9.9296
もらって	-9.92971
聞かせ	-9.93082
分別	-9.93143
しているうちに	-9.93226
多くの	-9.93226
初め	-9.93228
返事をした	-9.9326
足音	-9.93285
ように見え	-9.93374
いろいろな	-9.93523
がないから	-9.93584
此	-9.93607
ですわ	-9.93656
わかった	-9.9386
ないのです	-9.93913
を相手に	-9.93935
廻って	-9.94007
初	-9.94027
とみえ	-9.94093
も同じ	-9.94103
驚か	-9.9413
老人	-9.94157
死んで	-9.94266
すぎ	-9.9433
▁三千代は	-9.94337
▁私の	-9.94458
こんなに	-9.9452
母に	-9.94552
奴が	-9.9468
と今度は	-9.9469
始	-9.94706
教えて	-9.94812
見物	-9.94846
へはいる	-9.94864
結構だ	-9.94883
僕に	-9.94906
あんなに	-9.94919
へん	-9.94976
車を	-9.95006
よくない	-9.9504
を思い出した	-9.95325
彼が	-9.95342
手で	-9.95344
蒼	-9.95403
んだか	-9.95459
胸に	-9.95506
隠し	-9.95599
ぐるぐる	-9.95606
杯	-9.95637
洩	-9.95667
拝	-9.95708
職	-9.95746
滑	-9.95755
に至っては	-9.95756
屈	-9.95765
北	-9.95767
ミ	-9.95769
危	-9.95775
束	-9.95776
制	-9.95779
テ	-9.95785
卑怯	-9.95794
寂	-9.95797
球	-9.95798
装	-9.95798
誇	-9.95799
同志	-9.95799
像	-9.958
星	-9.95802
睡	-9.95802
偶然	-9.95802
縮	-9.95805
得た	-9.95805
推	-9.95805
揺	-9.95805
虚	-9.95807
大臣	-9.95813
羽	-9.95813
ヴ	-9.95814
ビール	-9.95814
盤	-9.95817
熊本	-9.95818
証拠	-9.95818
印	-9.95818
脊	-9.9582
問答	-9.9582
殿	-9.95821
禿	-9.95823
ございません	-9.95823
小さな	-9.95826
祝	-9.95828
訳には行か	-9.95834
要するに	-9.95836
経済	-9.95837
ット	-9.9585
自信	-9.95863
んだって	-9.95896
漸く	-9.95908
二三日	-9.95915
飯を食	-9.95917
もらう	-9.95929
高木	-9.95943
ごとに	-9.95988
車屋	-9.95996
何となく	-9.96004
おかしい	-9.96015
這入る	-9.96043
下から	-9.96056
ということ	-9.96081
身分	-9.9618
張った	-9.96198
鼻子	-9.96293
たまに	-9.96298
驚き	-9.96337
帰ると	-9.96343
弁じ	-9.96351
笑っている	-9.9638
坐っている	-9.96386
すぎる	-9.96416
慣れ	-9.96437
彼等は	-9.96441
いつまでも	-9.96506
受け取った	-9.96559
いるうちに	-9.9656
がありました	-9.96755
の癖に	-9.968
くはない	-9.96814
のようなもの	-9.9686
これだけ	-9.96869
留ま	-9.96975
そのくらい	-9.97047
こいつは	-9.97094
動かない	-9.97096
肩を	-9.97147
てみると	-9.97217
泣	-9.97241
などという	-9.97243
知りません	-9.97325
試み	-9.9733
なのか	-9.97341
しかしその	-9.97449
を開け	-9.97461
ある日	-9.97558
いられない	-9.97626
出てくる	-9.9767
るまで	-9.97728
の裏に	-9.97977
かき	-9.98005
呼んで	-9.98273
気色	-9.98476
があります	-9.9851
よし子が	-9.98517
ますます	-9.98548
に従って	-9.9855
ハハハハ	-9.98552
窓から	-9.98616
ろうか	-9.98648
おっしゃ	-9.98668
よりほかに	-9.98738
酒を	-9.98788
大した	-9.98832
るまい	-9.98906
してくれた	-9.98985
動いて	-9.99045
ていたのです	-9.99072
疑い	-9.99096
言っている	-9.99155
そうですか	-9.99193
止め	-9.99251
借り	-9.99262
るんです	-9.99352
受取	-9.99414
受	-9.99481
三つ	-9.9953
抱	-9.99598
四人	-9.99644
殺す	-9.99743
亡くな	-9.99757
へ出ると	-9.99801
の云う事	-9.99807
くれたまえ	-9.99909
してしまう	-9.99916
たがる	-9.99953
を読んだ	-10.0005
▁私が	-10.0009
房	-10.001
島	-10.0011
蓋	-10.0012
非	-10.0012
撫	-10.0012
ケ	-10.0012
醜	-10.0012
震	-10.0013
烟	-10.0014
速	-10.0014
捲	-10.0014
撲	-10.0014
載	-10.0014
癪	-10.0014
余計な	-10.0014
ありがたい	-10.0014
据	-10.0014
拾	-10.0015
偽	-10.0015
評判	-10.0015
陥	-10.0015
窮	-10.0015
理窟	-10.0015
不審	-10.0015
いわゆる	-10.0015
英語	-10.0015
境遇	-10.0016
旋	-10.0016
葬	-10.0016
ハンケチ	-10.0016
保	-10.0016
只	-10.0016
述べた	-10.0016
刷	-10.0016
頁	-10.0017
悩	-10.0017
シヅ子	-10.0017
無言のまま	-10.0017
虎	-10.0017
著	-10.0017
虫	-10.0017
ム	-10.0017
奉	-10.0017
けっして	-10.0017
偉大なる暗闇	-10.0018
頂	-10.0018
算	-10.0018
と答えました	-10.0018
ヤ	-10.0018
ター	-10.0022
大将	-10.0024
拝見	-10.0024
国へ帰	-10.0025
文字	-10.0025
達者	-10.0027
やりたい	-10.0028
きれいな	-10.0034
分らん	-10.0038
近寄	-10.0041
作り	-10.0041
旨い	-10.0045
外国	-10.0046
当り前	-10.0048
持つ	-10.0049
それ程	-10.005
手数	-10.0052
今朝	-10.0053
所有	-10.0056
感心した	-10.0056
下りて	-10.0059
違って	-10.0062
面白く	-10.0065
してやる	-10.0072
私の顔を見	-10.0077
学校へ	-10.0091
くなりました	-10.0097
を呼ぶ	-10.0114
私はその時	-10.0115
せし	-10.0118
来ている	-10.0127
する気	-10.0131
十分	-10.0132
るたびに	-10.0136
ようで	-10.0139
顔色	-10.0145
はたして	-10.0154
父を	-10.0158
机の上に	-10.0162
すわって	-10.0167
話をした	-10.0168
合わない	-10.0179
振って	-10.0181
不足	-10.0187
読め	-10.0192
だろうと思った	-10.0199
いっそ	-10.0209
むる	-10.0218
へ入れて	-10.0218
っています	-10.0225
を向いて	-10.0235
通じ	-10.0238
らよかろう	-10.0239
降りて	-10.0241
確か	-10.0258
けれどもその	-10.0262
五十	-10.0269
▁その時	-10.0272
を食って	-10.0274
ようでも	-10.0283
逢い	-10.0291
というのです	-10.0293
たくなる	-10.031
聞こえ	-10.0313
さすが	-10.0315
くれました	-10.0316
なんですか	-10.0316
その時の私	-10.0317
逢わ	-10.0321
卒業した	-10.0329
棚	-10.0331
面白	-10.0338
ように思われ	-10.0349
繰り返して	-10.0357
はすこぶる	-10.0361
驚	-10.0366
込まれ	-10.0368
途中で	-10.0371
わずに	-10.0373
事もない	-10.0374
ついている	-10.0375
申	-10.0382
かも知れませんが	-10.0384
や否や	-10.0401
ことがある	-10.0401
濡	-10.0401
相手に	-10.0408
であって	-10.0417
歩いている	-10.042
幸	-10.0424
打つ	-10.0429
をながめ	-10.043
揚	-10.0439
常に	-10.0448
手前	-10.0449
電	-10.0451
坊	-10.0456
ままで	-10.0458
給	-10.0458
井	-10.0463
縫	-10.0465
婆	-10.0466
詫	-10.0466
柔	-10.0468
敬	-10.0468
卑	-10.0469
よろしい	-10.0469
矢	-10.047
オ	-10.047
姓	-10.047
撃	-10.047
綿	-10.047
ありがとう	-10.047
ランプ	-10.047
潰	-10.0471
救	-10.0471
辛	-10.0471
大変な	-10.0471
儀	-10.0471
好奇心	-10.0471
省	-10.0471
厄介	-10.0471
相違	-10.0471
碁	-10.0471
児	-10.0471
羨	-10.0471
団扇	-10.0472
昨夕	-10.0472
おっかさん	-10.0472
青空文庫	-10.0472
じゅう	-10.0472
パ	-10.0473
灰	-10.0473
重ねて	-10.0474
発達	-10.0474
料理	-10.0474
いかなる	-10.0474
校正	-10.0475
昼寝	-10.0478
どのくらい	-10.0481
能力	-10.0482
なすった	-10.0483
横町	-10.0487
が好き	-10.049
そのままにして	-10.049
々たる	-10.0492
要領を得ない	-10.0493
入力	-10.05
下等	-10.0502
ころ	-10.0506
行きました	-10.0508
その中に	-10.0508
でもいい	-10.0509
漫画	-10.0512
少ない	-10.0513
月々	-10.0519
地面	-10.0522
変り	-10.0542
九時	-10.0544
て下さい	-10.0544
苦沙弥先生	-10.0552
作った	-10.0553
ぞなもし	-10.0558
山嵐が	-10.0562
だろうと思って	-10.0579
なければならなかった	-10.0581
......」「	-10.0615
誠吾は	-10.0617
着け	-10.0625
つもりだ	-10.0642
の真中に	-10.0646
一間	-10.0652
熱心に	-10.0657
ござ	-10.0658
上がった	-10.0663
を与える	-10.0665
事になる	-10.0667
下宿へ	-10.0668
出すと	-10.0669
怒り	-10.0679
賞め	-10.0684
できて	-10.0704
を呼んで	-10.0707
の色が	-10.0715
貸して	-10.0736
自分で自分	-10.0756
その夜	-10.0757
野だが	-10.0765
今夜は	-10.0772
っぱ	-10.0778
をかいて	-10.0779
西洋人	-10.078
講義を	-10.078
売り	-10.0799
曲げ	-10.0804
のごとき	-10.0814
うる	-10.0815
だまって	-10.0821
会話	-10.0822
構え	-10.0838
十七	-10.0844
言わ	-10.0855
はずれ	-10.0856
五分	-10.0861
き出した	-10.0866
という事を	-10.0873
この前	-10.0874
独仙	-10.0876
落した	-10.0877
向け	-10.0881
ったまま	-10.0883
わぬ	-10.0884
遣る	-10.0889
十六	-10.0892
原口さんが	-10.0897
てしまう	-10.0899
部屋の中	-10.0901
したがって	-10.0902
の顔を見	-10.0902
恐ろし	-10.0908
乗る	-10.091
ましい	-10.0917
信じて	-10.0919
も無い	-10.0924
閉	-10.0926
をとって	-10.0927
いやだ	-10.093
工	-10.0931
言葉で	-10.0937
治	-10.0939
議	-10.094
梅	-10.094
惜	-10.094
天麩羅	-10.0941
叱	-10.0942
華	-10.0943
延	-10.0943
あばた	-10.0943
一生懸命に	-10.0943
胃	-10.0943
傾	-10.0944
セ	-10.0944
かも知れん	-10.0944
塊	-10.0944
塞	-10.0944
館	-10.0944
植	-10.0945
たんびに	-10.0945
たまらない	-10.0945
園	-10.0945
ねばならぬ	-10.0945
ゴ	-10.0945
残酷	-10.0946
鈍	-10.0946
っくり	-10.0947
猿	-10.0947
ぷ	-10.0947
弄	-10.0947
扱	-10.0947
控えている	-10.0947
堀田	-10.0947
非常な	-10.0947
様な気がした	-10.0947
廃	-10.0947
一部	-10.0948
哀	-10.0948
昭和	-10.0948
始まった	-10.0948
之	-10.0948
必竟	-10.0948
アント	-10.0948
気が付か	-10.0949
小川	-10.095
貰いたい	-10.0951
呼ば	-10.0951
マン	-10.0952
至極	-10.0952
愛想	-10.0953
女房	-10.0953
旅行	-10.0955
はなかろう	-10.0956
車夫	-10.0956
計画	-10.0957
文明	-10.0958
一層	-10.0959
三毛子	-10.0964
二人の間に	-10.0968
貰い	-10.0969
きのう	-10.0969
仲間	-10.097
だけだ	-10.0973
所作	-10.0977
を連れて	-10.0979
三千代さん	-10.0982
家庭	-10.0982
塗り	-10.0986
大事件	-10.099
不断	-10.0995
ありませんでした	-10.0997
物語	-10.0997
電話	-10.1002
中々	-10.1006
何だい	-10.1016
大丈夫だ	-10.1017
町内	-10.1017
みたら	-10.1018
自然に	-10.1024
だろうと思う	-10.1025
聞かない	-10.1032
うんと	-10.1037
明らか	-10.1046
覚えている	-10.1048
されている	-10.1048
のなかで	-10.1049
を与えた	-10.1049
ったのは	-10.1059
を読む	-10.1059
並べ	-10.106
平生から	-10.1065
おらん	-10.1065
仕切	-10.1065
十時	-10.1067
貰	-10.1068
くると	-10.1073
呑み	-10.1074
極めた	-10.1083
変った	-10.1084
刑事	-10.1087
見ろ	-10.1088
▁ところへ	-10.1093
は少しも	-10.1093
借りて	-10.1102
ますよ	-10.1102
寝る	-10.1113
髯	-10.1113
悪口	-10.112
さっきから	-10.1129
驚いて	-10.1153
与次郎に	-10.1158
えなかった	-10.116
人生	-10.1162
合せて	-10.1182
触れ	-10.1188
正直	-10.1195
ぐる	-10.1197
押	-10.12
上がり	-10.1205
をながめていた	-10.1205
受けた	-10.1208
近頃は	-10.1219
という気	-10.1231
かれて	-10.1238
私はただ	-10.1243
みえる	-10.1244
別れ	-10.1248
男女	-10.1249
るために	-10.1267
訳だ	-10.1282
ような事を	-10.1283
誠吾	-10.1289
から出る	-10.1293
知れない	-10.1294
うちへ	-10.1296
だれが	-10.1297
陽	-10.13
応じ	-10.13
というような	-10.1314
となった	-10.1315
は固より	-10.1338
なくても	-10.1344
スト	-10.1353
掻	-10.137
と云う事を	-10.1374
黙	-10.1397
塗	-10.1406
狭	-10.1407
おもしろ	-10.1408
件	-10.143
顧	-10.1431
将	-10.1436
充	-10.1439
澄	-10.1442
因	-10.1443
料	-10.1444
適	-10.1444
樹	-10.1444
油	-10.1444
総	-10.1445
津	-10.1445
徹	-10.1445
胴	-10.1445
枯	-10.1445
岩	-10.1445
狼	-10.1445
肴	-10.1445
才	-10.1446
其所に	-10.1446
河	-10.1446
奢	-10.1446
掌	-10.1446
魔	-10.1446
材料	-10.1446
ぺ	-10.1446
▁翌日	-10.1447
渋	-10.1447
ベル	-10.1447
ゆっくり	-10.1447
ひどく	-10.1447
忠告	-10.1447
肝心の	-10.1447
メ	-10.1448
先達て	-10.1448
早速	-10.1448
緑	-10.1448
少なくとも	-10.1448
おそらく	-10.1448
雇	-10.1448
あらわれた	-10.1448
冊	-10.1448
豆	-10.1448
お母さん	-10.1448
琴	-10.1449
藪	-10.1449
利益	-10.1449
小僧	-10.1449
べつに	-10.1449
参考	-10.145
意義	-10.145
眼が覚め	-10.145
汁	-10.145
親類	-10.1451
光線	-10.1451
水島	-10.1452
訪ね	-10.1452
独身	-10.1453
姿勢	-10.1453
立ち上がった	-10.1453
飛んだ	-10.1459
里見	-10.1459
手伝	-10.1461
不快	-10.1463
しそうに	-10.1464
に似た	-10.1464
何しろ	-10.1468
折れ	-10.1471
だめ	-10.1473
例の通り	-10.1475
息を	-10.1475
書斎へ	-10.1479
解らない	-10.1484
燃え	-10.1485
半ば	-10.1486
もらった	-10.1487
普通	-10.1494
食事	-10.1494
小さく	-10.1495
せぬ	-10.15
悲	-10.15
立たない	-10.1505
聞きました	-10.1514
その上に	-10.1514
宿屋	-10.1528
場合には	-10.1532
聞え	-10.1536
の言葉は	-10.1538
ございます	-10.1555
善い	-10.1556
二年	-10.156
見た時	-10.1564
最も	-10.1565
ませんか	-10.1567
が出来た	-10.1577
これほど	-10.1585
そうですね	-10.1597
用心	-10.1601
一々	-10.1606
いけません	-10.1613
薄い	-10.1614
そうもない	-10.1615
上手	-10.1617
と云	-10.1619
吹いて	-10.1621
知っていた	-10.1622
懸けて	-10.1628
若い女	-10.1631
ハ	-10.1634
声がする	-10.1645
あとを	-10.1647
認めて	-10.1656
ごとき	-10.1657
送	-10.1662
帰って来て	-10.1663
だと云って	-10.1674
眺めている	-10.1686
崩	-10.1699
わからん	-10.1714
学校へ出	-10.1715
渡した	-10.1728
っていたのです	-10.1733
なしに	-10.1743
分った	-10.1765
せず	-10.1768
きません	-10.177
どろ	-10.1776
を眺めていた	-10.178
つま	-10.1781
締め	-10.1785
そんな事は	-10.1791
誰でも	-10.1793
互	-10.18
あったのです	-10.1814
吾輩も	-10.1836
机の上	-10.1842
しまいには	-10.1846
なあに	-10.1847
を持った	-10.1872
東京へ出	-10.1876
三四	-10.1895
伯	-10.1917
っこ	-10.1929
となると	-10.193
逃	-10.1936
東風	-10.1938
駄	-10.1944
要領を得	-10.1951
べからざる	-10.1956
頭の上	-10.1957
後架	-10.196
供	-10.1961
哲学	-10.1963
邸	-10.1967
温	-10.1968
迂	-10.1969
江戸っ子	-10.1969
揉	-10.1969
弁護	-10.197
平凡	-10.197
箒	-10.197
肝	-10.1971
区別	-10.1971
瓦	-10.1971
岸	-10.1971
護	-10.1971
紀	-10.1971
忍	-10.1971
臨	-10.1971
モ	-10.1972
滅	-10.1972
胃弱	-10.1972
裁	-10.1972
益	-10.1972
ぴたりと	-10.1972
ともかくも	-10.1972
剣	-10.1973
ゆうべ	-10.1973
頑固	-10.1973
御客さん	-10.1973
切符	-10.1973
宵	-10.1973
そろそろ	-10.1973
冷淡	-10.1973
ような気がした	-10.1973
簡単な	-10.1973
幼	-10.1974
呆	-10.1974
あくる日	-10.1974
属	-10.1974
抗	-10.1974
英国	-10.1974
敢	-10.1974
シャツ	-10.1974
ページ	-10.1974
落雲館	-10.1974
慥	-10.1974
襲	-10.1974
両手で	-10.1974
弟子の僧	-10.1975
恩	-10.1975
頸	-10.1975
貴様	-10.1975
括	-10.1975
欄	-10.1975
鐘	-10.1975
織	-10.1975
豊	-10.1975
摺	-10.1975
全然	-10.1976
載せて	-10.1976
股	-10.1976
舞台	-10.1976
御覧なさい	-10.1977
に関する	-10.1978
広田さん	-10.1978
天才	-10.1979
天井	-10.1979
済まして	-10.198
気が付いて	-10.1981
及び	-10.1981
敷居	-10.1982
結び	-10.1982
容子	-10.1983
優しい	-10.1983
便利	-10.1984
縫子	-10.1984
公平	-10.1986
端書	-10.199
折々	-10.1992
道楽	-10.1993
暮れ	-10.1995
申す	-10.1997
手際	-10.1999
言語	-10.1999
意地	-10.2
私たち	-10.2002
原口	-10.2004
を起した	-10.2007
こういった	-10.201
を使う	-10.2013
はっと	-10.2023
如何に	-10.2029
大きな声で	-10.203
動物	-10.2033
使った	-10.2054
なければならぬ	-10.2064
払って	-10.2066
私にも	-10.2073
留まった	-10.2074
熱い	-10.2084
へ廻って	-10.2096
と云うものは	-10.2101
忘れていた	-10.2105
にあらず	-10.2119
安心して	-10.2119
厭な	-10.212
収	-10.2138
なさそう	-10.2143
普通の人間	-10.2146
始める	-10.215
べきもの	-10.2159
気がする	-10.2169
その中	-10.217
▁美禰子は	-10.2172
昔から	-10.22
逢	-10.2204
正直に	-10.2206
正面	-10.2213
者がある	-10.2226
を用い	-10.2263
と答える	-10.227
気楽	-10.2272
奇麗に	-10.2279
を並べて	-10.2296
方がいい	-10.2301
してくれる	-10.2305
惜しい	-10.2316
代助を見	-10.2344
▁やがて	-10.2347
引いて	-10.2348
られている	-10.235
して下さい	-10.2374
鼻の先	-10.2376
続け	-10.238
いつまで	-10.238
まじ	-10.2393
の事だから	-10.2396
こっちへ	-10.2399
ばかりじゃない	-10.2404
戸外	-10.2408
づいた	-10.2413
往	-10.242
らなければ	-10.2423
如	-10.2443
と迷亭は	-10.2449
うらなり	-10.2452
いいです	-10.2452
易え	-10.2455
ところがある	-10.247
呼	-10.2474
偉	-10.2487
貴	-10.2489
こしらえ	-10.2492
片付け	-10.2507
氷	-10.2509
へはいって	-10.2516
団	-10.252
が起った	-10.2521
刈	-10.2524
遂	-10.2524
吉	-10.2524
旦那	-10.2525
僧	-10.2525
ソ	-10.2525
恨	-10.2525
送別会	-10.2526
跳ね	-10.2526
蹴	-10.2526
躍	-10.2526
辞職	-10.2527
風呂	-10.2527
いい加減	-10.2527
周	-10.2527
緩	-10.2527
ハイカラ	-10.2527
含	-10.2528
尋常	-10.2528
巾	-10.2528
院	-10.2528
工夫	-10.2528
ぶらぶら	-10.2529
専	-10.2529
ご覧	-10.2529
学資	-10.2529
麻	-10.2529
に襲われ	-10.2529
新体詩	-10.2529
潮	-10.2529
ボール	-10.2529
倫理	-10.2529
聖	-10.2529
恥ずかし	-10.2529
恐縮	-10.253
嘆	-10.253
と思えば	-10.253
沈黙	-10.253
じっさい	-10.253
p	-10.253
京都	-10.253
株	-10.253
どちら	-10.253
毛布	-10.253
道徳	-10.253
バ	-10.253
藁	-10.253
を呼んだ	-10.2531
小さな声で	-10.2531
父や母	-10.2531
怠	-10.2531
ra	-10.2531
相沢	-10.2531
プ	-10.2532
芋	-10.2532
都会	-10.2532
個性	-10.2532
ありゃしない	-10.2532
なぞは	-10.2533
いっぱい	-10.2533
兄弟	-10.2534
適当	-10.2534
御蔭で	-10.2534
に過ぎない	-10.2534
失望	-10.2535
強情	-10.2535
平常	-10.2535
形容	-10.2536
感服	-10.2536
腸	-10.2536
戸棚	-10.2537
忙しい	-10.2537
もう一遍	-10.2537
表へ出た	-10.2538
イン	-10.2541
のそのそ	-10.2544
感ずる	-10.2545
驚ろいて	-10.2545
脱いで	-10.2546
下りた	-10.2547
もしくは	-10.2547
姉さん	-10.2548
父の病気	-10.255
利かない	-10.255
それこそ	-10.2552
二三度	-10.2554
とまった	-10.2557
為め	-10.2558
ですけれども	-10.2559
時刻	-10.2561
事が出来る	-10.2562
言わない	-10.2565
万一	-10.2565
できるだけ	-10.2566
描いて	-10.2568
六十	-10.2577
まずい	-10.258
そうとする	-10.2581
一句	-10.2583
盛り	-10.2584
吸い	-10.2591
に近い	-10.26
本来	-10.2602
音がする	-10.2608
開いた	-10.261
おまえ	-10.2614
書いてあった	-10.2619
宜い	-10.2619
挙げ	-10.2623
してみると	-10.2631
なんだろう	-10.2634
らざる	-10.2637
独りで	-10.2639
お客	-10.2641
その辺	-10.2642
返事をする	-10.2646
の前を	-10.2648
土手	-10.265
私はそれを	-10.2651
有様	-10.2663
つけられ	-10.2663
頭脳	-10.2666
今では	-10.267
鳴る	-10.2679
あっ	-10.2684
晴れ	-10.269
覚えた	-10.2694
自分だけ	-10.2698
互に	-10.2705
屋敷	-10.2712
眠り	-10.2714
苦しみ	-10.2727
してやろう	-10.2729
の様子を	-10.274
はむろん	-10.2741
になったら	-10.2759
眼の前に	-10.277
があるものか	-10.2782
なければならん	-10.2783
遣り	-10.2784
聞かれ	-10.2788
見たまえ	-10.2802
談話を	-10.2807
埋め	-10.2829
求	-10.2855
なもし	-10.2866
あの人	-10.288
を使って	-10.2895
教えてくれ	-10.2898
せられた	-10.2901
▁吾輩は	-10.2905
髯を	-10.2917
分りません	-10.2934
黒く	-10.2953
心細	-10.2961
寺尾	-10.2961
温泉	-10.2969
低	-10.2975
ただ今	-10.2978
変る	-10.299
呼ぶ	-10.2991
御覧	-10.3005
暮らし	-10.3025
ここまで	-10.3025
の方でも	-10.3032
日本人	-10.3045
だそうだ	-10.3045
添	-10.3045
の関係を	-10.3047
広田	-10.3051
となって	-10.3061
するような	-10.3062
堪	-10.3077
られていた	-10.308
その場	-10.309
応え	-10.3091
抛	-10.3092
卓	-10.3099
溜	-10.3104
これより	-10.3106
へ這入った	-10.3106
都	-10.3109
噛	-10.311
納	-10.311
尻尾	-10.311
幽	-10.3112
謝	-10.3114
競	-10.3114
穏	-10.3114
腐	-10.3115
ナ	-10.3115
歴	-10.3115
斯	-10.3116
提	-10.3116
版	-10.3116
譲	-10.3116
沙	-10.3116
勘	-10.3116
源因	-10.3116
遇	-10.3117
敏	-10.3117
黄	-10.3117
挟	-10.3117
延ばして	-10.3117
いちばん	-10.3117
奮	-10.3117
替	-10.3117
輩	-10.3117
召	-10.3117
笹	-10.3117
羅	-10.3117
顎	-10.3117
圧迫	-10.3117
攻撃	-10.3117
訓	-10.3117
胡魔化	-10.3118
濁	-10.3118
已を得ず	-10.3118
挨拶をして	-10.3118
剛	-10.3118
亭主	-10.3118
剥	-10.3118
シゲ子	-10.3118
煮	-10.3118
免職	-10.3118
裡	-10.3118
桶	-10.3118
8	-10.3118
いっこう	-10.3118
区	-10.3118
健康	-10.3118
あぶない	-10.3118
叔母さん	-10.3118
接触	-10.3119
鎌倉	-10.3119
電燈	-10.3119
教育を受けた	-10.3119
原因	-10.3119
ちょいと	-10.3119
執	-10.312
無邪気	-10.312
泳	-10.312
に限る	-10.312
やむをえず	-10.312
日曜	-10.312
策略	-10.3121
結論	-10.3122
一面に	-10.3122
リン	-10.3122
理屈	-10.3122
梯子	-10.3123
に過ぎなかった	-10.3123
据えて	-10.3124
位置	-10.3124
後悔	-10.3125
を有している	-10.3125
解決	-10.3126
帳面	-10.3126
口調で	-10.3127
三四郎を見た	-10.3127
坊さん	-10.3128
自分にとって	-10.3128
どうにか	-10.3129
代表	-10.3129
繰り	-10.3129
哲学者	-10.313
感情	-10.3132
午後	-10.3132
出来るだけ	-10.3132
処分	-10.3133
特色	-10.3136
少しずつ	-10.3137
四角	-10.3137
自分たち	-10.3138
観念	-10.3139
ああいう	-10.314
声を出して	-10.3141
作用	-10.3143
に住んで	-10.3143
時機	-10.3148
動いている	-10.3153
誰にも	-10.3154
勢力	-10.3154
の空気	-10.3155
つけている	-10.3164
這入った	-10.3168
親子	-10.3169
かと聞くと	-10.317
聞えた	-10.3171
ように思われる	-10.3176
何時でも	-10.3177
二重	-10.318
好意	-10.3185
四つ	-10.3193
三十分	-10.3198
▁母は	-10.3217
聞こえる	-10.322
残り	-10.3224
んだそうだ	-10.323
君子	-10.3233
此方から	-10.3241
▁三十	-10.3242
早い	-10.3247
起きて	-10.3249
を帯び	-10.3263
五年	-10.3271
送った	-10.3277
寺尾は	-10.3278
に似ている	-10.3279
の傍へ	-10.3293
陽気	-10.3295
重く	-10.3303
隠	-10.332
正面に	-10.3321
輝	-10.3325
られました	-10.3325
来なかった	-10.3333
締	-10.3334
なんでしょう	-10.3336
戸口	-10.3343
私の胸	-10.3344
るだけの	-10.3347
ものですから	-10.3347
けど	-10.339
少女	-10.342
だれか	-10.3426
流行	-10.3446
面目	-10.3447
罪人	-10.3456
ではないか	-10.3473
助け	-10.3474
落ちる	-10.3479
ができた	-10.3479
あらず	-10.3481
強いて	-10.3492
走る	-10.3509
容易	-10.351
とくに	-10.3512
気になる	-10.3528
得なかった	-10.353
夢を見	-10.3533
いったい	-10.3538
坐った	-10.3547
から見れば	-10.3582
やっている	-10.3589
伏	-10.3592
旨	-10.3595
珍し	-10.3612
その内	-10.3641
続いて	-10.3651
諸	-10.3651
個	-10.3652
でなくっちゃ	-10.3652
しておく	-10.3686
でなくって	-10.3686
ではなく	-10.3691
或	-10.3699
抱え	-10.3704
行け	-10.3712
断って	-10.3713
ものでない	-10.3715
医	-10.3715
の下で	-10.3722
けば	-10.3723
兼	-10.3724
心持がした	-10.3725
白く	-10.3729
担	-10.3731
修	-10.3733
帳	-10.3733
帽	-10.3734
穿	-10.3734
坊っちゃん	-10.3735
乙	-10.3735
悔	-10.3735
裸	-10.3736
餅	-10.3736
囲	-10.3736
刀	-10.3737
伴	-10.3737
柳	-10.3738
再	-10.3738
ポ	-10.3739
砲	-10.3739
おとなしく	-10.374
飽	-10.374
尊	-10.374
躇	-10.374
藤	-10.3741
裂	-10.3741
盆	-10.3741
跡	-10.3741
栗	-10.3741
展	-10.3741
皺	-10.3741
すん子	-10.3741
昧	-10.3741
ピ	-10.3741
拍子に	-10.3741
惨	-10.3741
貫	-10.3741
攫	-10.3741
詞	-10.3741
履	-10.3741
感謝	-10.3741
あきらめ	-10.3742
歓	-10.3742
印象	-10.3742
臥	-10.3742
なけりゃ	-10.3742
修養	-10.3742
調和	-10.3742
仙	-10.3742
招	-10.3742
幾分か	-10.3742
棄てて	-10.3742
ござんす	-10.3743
椎	-10.3743
醒	-10.3743
たびたび	-10.3743
いつのまにか	-10.3743
片づけ	-10.3743
学校の生徒	-10.3743
珠	-10.3743
一銭五厘	-10.3743
襦	-10.3743
n	-10.3743
g	-10.3743
▁199	-10.3743
大和魂	-10.3743
萩	-10.3743
乾	-10.3743
一遍	-10.3743
調戯	-10.3743
やいなや	-10.3743
看護婦	-10.3743
多々良君	-10.3744
いらしった	-10.3744
巡	-10.3744
即ち	-10.3744
仕方なしに	-10.3744
徳義	-10.3744
太鼓	-10.3744
因果	-10.3744
降参	-10.3745
古賀さん	-10.3745
形式	-10.3745
ペン	-10.3745
絶えず	-10.3746
賢	-10.3746
因縁	-10.3746
座蒲団	-10.3746
なってしまった	-10.3746
会議	-10.3746
職員	-10.3746
全部	-10.3747
砂糖	-10.3747
千万	-10.3747
現在	-10.3747
些とも	-10.3747
困難	-10.3748
報知	-10.3749
かいてある	-10.3749
伯父さん	-10.3749
常識	-10.3749
粒	-10.3749
動作	-10.3752
持っていた	-10.3752
飛び込んだ	-10.3753
青山	-10.3753
あやま	-10.3754
ばかりでなく	-10.3754
怒って	-10.3755
教室	-10.3755
土地	-10.3756
定めて	-10.3757
歩きながら	-10.3759
小使	-10.3762
間もなく	-10.3765
音楽	-10.3767
飛び出して	-10.3767
よさそうな	-10.3771
今更	-10.3771
望み	-10.3773
忘れてしまった	-10.3775
と同じように	-10.3775
教場	-10.3777
待ってい	-10.3779
心持ちがした	-10.3781
二時間	-10.3788
こう云った	-10.3791
立ちながら	-10.3799
を借りて	-10.38
ならず	-10.3806
に関して	-10.3814
であります	-10.3821
笑っていた	-10.3829
田舎者	-10.3845
思っている	-10.3846
垂れ	-10.3848
考えてみると	-10.3849
永久に	-10.385
かしらん	-10.3856
奇麗な	-10.3864
割り	-10.3865
男でした	-10.3874
つもりである	-10.3886
なるもの	-10.3891
金を借り	-10.3892
何ですか	-10.3892
も無く	-10.3894
しなければならない	-10.3895
いらない	-10.3901
お酒	-10.3908
借りた	-10.3909
出掛けた	-10.3917
らしいのです	-10.3918
気がついて	-10.3918
思い出す	-10.3918
と聞いたら	-10.3919
茶の間へ	-10.3928
一種	-10.3947
苦心	-10.3951
聞える	-10.3951
ように思われた	-10.3965
呑気な	-10.3968
みろ	-10.398
心配する	-10.3983
様に云った	-10.3983
誰だ	-10.3983
生じ	-10.3988
様になった	-10.3988
ふん	-10.3995
走り	-10.3995
残ってい	-10.3998
十八	-10.4003
単純な	-10.4013
縛	-10.4013
越す	-10.4021
来ます	-10.4031
を認め	-10.404
馬鹿な	-10.406
椽側へ	-10.4064
疲れた	-10.4064
し得る	-10.4078
気楽な	-10.4113
求め	-10.4121
立派	-10.4126
似ている	-10.4139
試	-10.4153
好く	-10.4169
考えてみ	-10.4175
奥へ	-10.421
と云うのが	-10.4226
みたような	-10.4228
貰え	-10.4248
通った	-10.4256
傘を	-10.4284
せられる	-10.4288
威	-10.4306
巧	-10.4321
いずれ	-10.4328
焼け	-10.4332
沈んで	-10.4334
わるく	-10.4335
か知らん	-10.434
出来ぬ	-10.434
人々	-10.4355
濃	-10.4371
堅	-10.4371
違った	-10.4376
そうなものだ	-10.4377
出来ません	-10.4383
層	-10.4384
枚	-10.4385
換	-10.4387
伏せ	-10.4387
匹	-10.439
務	-10.439
令	-10.4397
気になって	-10.4399
蒸	-10.4399
則	-10.44
に至るまで	-10.4403
態	-10.4404
徒	-10.4404
熟	-10.4404
にもかかわらず	-10.4404
条	-10.4405
らなくっちゃ	-10.4405
象	-10.4406
10	-10.4406
幹	-10.4406
育	-10.4406
除	-10.4407
岡	-10.4407
いつになく	-10.4407
ベ	-10.4407
竜	-10.4407
に任せて	-10.4407
つくづく	-10.4407
鼓	-10.4407
に限って	-10.4407
いささか	-10.4407
紫	-10.4408
竪	-10.4408
診	-10.4408
炎	-10.4408
闇	-10.4408
さっさと	-10.4408
推察	-10.4408
祖	-10.4408
おそろしい	-10.4408
忽ち	-10.4409
細工	-10.4409
宮	-10.4409
丁寧に	-10.4409
漬	-10.4409
武右衛門君	-10.4409
いつもの通り	-10.4409
鎖	-10.4409
侍	-10.4409
まん中に	-10.4409
憚	-10.441
アパート	-10.441
振り返って	-10.441
遮	-10.441
緒	-10.441
弓	-10.441
提灯	-10.441
浪	-10.441
振り返った	-10.441
ぐあい	-10.441
踴	-10.441
べつだん	-10.441
保険	-10.4411
首肯	-10.4411
小石川	-10.4411
にきまっている	-10.4411
振舞	-10.4411
烟草	-10.4411
穴倉	-10.4411
艶	-10.4412
明るい	-10.4412
武	-10.4412
殺される	-10.4412
に比べると	-10.4412
稀	-10.4412
性格	-10.4413
筆記	-10.4413
裾	-10.4413
鋏	-10.4413
浴び	-10.4414
おちついて	-10.4414
利害	-10.4414
大概	-10.4415
便宜	-10.4415
払う	-10.4416
すこし	-10.4416
下手な	-10.4416
細長い	-10.4417
と迷亭君が	-10.4417
学士	-10.4417
神田	-10.4418
冷たい	-10.4419
突っ	-10.442
なりき	-10.4421
起らなかった	-10.4422
雨戸	-10.4422
これから先	-10.4424
建物	-10.4425
毎月	-10.4426
三毛	-10.4427
事があります	-10.4428
だけあって	-10.4429
双方	-10.4429
組み	-10.4432
真理	-10.4433
飾り	-10.4433
と思いながら	-10.4433
両手を	-10.4433
を発見した	-10.4436
一尺	-10.4436
と云い出した	-10.4436
発行	-10.4437
発見	-10.4439
なくちゃ	-10.444
寒月さん	-10.4442
右の手を	-10.4442
かかり	-10.4443
飛び出した	-10.4443
堅い	-10.4445
上品	-10.4445
案外	-10.4448
勝手口	-10.4448
三角	-10.4448
こう言った	-10.4448
天地	-10.4449
泣く	-10.4452
面白くない	-10.4452
見舞	-10.4452
こぼ	-10.4452
ような気がして	-10.4456
こしらえて	-10.4456
眼前に	-10.4458
正月	-10.4458
疑う	-10.4461
伯父	-10.4471
問う	-10.4471
内容	-10.4473
蒼い	-10.4474
寒さ	-10.4477
まことに	-10.4479
正直な	-10.4486
るべし	-10.4488
んですがね	-10.449
のん気	-10.4491
いずれも	-10.4495
しつつある	-10.4495
繰り返し	-10.4499
込ま	-10.4503
取り上げ	-10.4504
それとも	-10.4505
いやになった	-10.4507
何度	-10.4509
遊びに来	-10.4514
旨く	-10.4519
人数	-10.4519
どころか	-10.452
ぎわ	-10.453
を忘れた	-10.4533
その声	-10.4536
と云う意味	-10.4536
用意	-10.4537
どうだい	-10.4538
最中	-10.454
を知る	-10.4551
画家	-10.4551
動いた	-10.4552
黒い影	-10.4554
だけです	-10.4562
ろうとする	-10.4571
帰りました	-10.4584
しておいて	-10.4588
これまで	-10.4589
敷いて	-10.459
払い	-10.4611
身の上	-10.4611
丸い	-10.4612
机の前	-10.4613
だったら	-10.4624
一夜	-10.4627
まで行って	-10.4629
だろうと考え	-10.4631
んじ	-10.4638
起きる	-10.4644
せられて	-10.4645
そのひと	-10.4648
ですもの	-10.4652
住んでいる	-10.4655
相応	-10.4657
わが心	-10.4676
好かった	-10.4689
んなさい	-10.4691
々々	-10.4692
移って	-10.4696
勧	-10.4699
起きた	-10.4701
事でした	-10.4704
切り上げ	-10.4705
持って来	-10.4712
一言も	-10.4721
乱れ	-10.4724
けれど	-10.473
待っていた	-10.4754
会う	-10.4759
残っている	-10.478
向けた	-10.4806
誘い	-10.4817
抜けた	-10.4818
様子を見て	-10.4827
決心した	-10.4827
ないのだ	-10.4833
へ来ると	-10.4867
に居る	-10.4868
一目	-10.488
認	-10.4891
だめだ	-10.4904
込んでいる	-10.4914
その間に	-10.4916
移る	-10.4922
をもっている	-10.4926
お茶	-10.4938
そのほか	-10.4947
呑気	-10.495
超	-10.4958
何処か	-10.4971
四日	-10.4972
染	-10.4973
家へ帰って	-10.4987
云わない	-10.5001
出入	-10.5013
大きな声	-10.5022
泣いて	-10.5032
あいつ	-10.5046
見えて	-10.5051
其	-10.506
伝え	-10.5067
投	-10.5092
隙	-10.5108
いい心持ち	-10.5108
浸	-10.5108
を挙げて	-10.5112
わからぬ	-10.5114
骨が折れ	-10.5114
階	-10.5115
慢	-10.5115
由	-10.5116
蛇	-10.5116
天然居士	-10.5116
棄	-10.5117
不人情	-10.5118
依	-10.5119
茂	-10.5119
蚊帳	-10.512
詳しく	-10.512
効	-10.512
序	-10.512
証	-10.512
おそろしく	-10.5121
没	-10.5121
野郎	-10.5121
敬服	-10.5122
憐れな	-10.5122
お世辞	-10.5122
逸	-10.5122
憐	-10.5122
埒	-10.5122
実をいうと	-10.5122
見渡す	-10.5122
賑やか	-10.5122
斬	-10.5122
宝	-10.5123
編	-10.5123
ズ	-10.5123
しっかり	-10.5123
専門	-10.5123
紐	-10.5123
苛い	-10.5123
肯	-10.5123
そいつは	-10.5123
我儘	-10.5123
痕	-10.5123
祭	-10.5123
歴史	-10.5123
涼	-10.5123
商売	-10.5123
ビ	-10.5123
知識	-10.5123
だらけの	-10.5123
吟	-10.5123
うるさい	-10.5124
三平君	-10.5124
憂	-10.5124
ノート	-10.5124
友だち	-10.5124
すっかり	-10.5124
噂	-10.5124
規	-10.5124
置けば	-10.5124
茫然として	-10.5124
どおり	-10.5124
孔	-10.5124
導	-10.5124
江	-10.5124
つごう	-10.5124
地蔵様	-10.5124
招待	-10.5124
相撲	-10.5124
真直に	-10.5124
草履	-10.5124
紛	-10.5125
盃	-10.5125
脚	-10.5125
笑わせ	-10.5125
規則	-10.5125
群	-10.5125
じいさん	-10.5125
不可ない	-10.5125
塵	-10.5125
偉大な	-10.5125
通り越して	-10.5125
壊	-10.5125
おかげ	-10.5125
罵	-10.5125
何等の	-10.5125
猛	-10.5126
鉛筆	-10.5126
風邪	-10.5126
九州	-10.5126
引っ張って	-10.5126
つまらん	-10.5126
露西亜	-10.5126
なくてはならない	-10.5126
謝罪	-10.5126
鷹揚	-10.5127
死んでしまった	-10.5127
色彩	-10.5127
しばしば	-10.5127
深夜	-10.5127
ブ	-10.5127
毎晩	-10.5128
有名な	-10.5128
軽薄	-10.5128
大きな声を出して	-10.5129
壇	-10.5129
キス	-10.5129
将来	-10.513
長井	-10.513
日第	-10.513
混	-10.5131
点において	-10.5131
仕様がない	-10.5131
かくのごとく	-10.5131
嫌いな	-10.5132
と東風君は	-10.5133
顔を見ると	-10.5133
新橋	-10.5133
仕合せ	-10.5134
飛び込んで	-10.5135
と寒月君が	-10.5135
使う	-10.5135
例の如く	-10.5136
解らなかった	-10.5138
写生	-10.5139
事務	-10.5139
黙ってしまった	-10.514
三十円	-10.5141
覚えず	-10.5145
かまわない	-10.5145
嫌いだ	-10.5146
驚きました	-10.5147
使用	-10.5147
生まれ	-10.5147
訳に行か	-10.515
くらいです	-10.5154
突いて	-10.5157
夜中	-10.5161
が多い	-10.5161
人格	-10.5161
立ったまま	-10.5164
日記	-10.5166
じみた	-10.5167
濃い	-10.5167
をやめて	-10.5168
訳がない	-10.5171
怒る	-10.5173
借金	-10.5174
方が好い	-10.5179
気性	-10.5189
現実	-10.5193
養家	-10.5194
何遍も	-10.5195
寝ていた	-10.5197
こないだ	-10.5197
とともに	-10.52
を見詰めて	-10.52
二返	-10.5201
ひま	-10.5201
大丈夫です	-10.5201
浴	-10.5204
顔を合せ	-10.5204
朝日	-10.5206
外へ出	-10.5209
へ入れた	-10.5216
はじめた	-10.522
連れて来	-10.5221
最前	-10.5224
になっていました	-10.5226
内心	-10.5226
懐中	-10.5227
愉快だ	-10.5229
おれの顔	-10.5235
父母	-10.5235
安心した	-10.5236
んじゃないか	-10.5239
集め	-10.524
想像した	-10.5241
を眺めた	-10.5252
往き	-10.5254
行きましょう	-10.5262
畳んで	-10.5264
あたった	-10.5266
二本	-10.5267
どこかへ	-10.5294
やりました	-10.5316
正面から	-10.5326
二十三	-10.5342
たいへんな	-10.5355
送る	-10.5362
狂人	-10.5371
出立	-10.5372
ざるを得	-10.5397
積りだ	-10.5398
責め	-10.5399
アハハハ	-10.5401
響き	-10.541
すぎて	-10.5443
外へ出て	-10.5444
のほか	-10.5453
吾人	-10.5454
酔って	-10.5474
迎	-10.5485
送り	-10.5492
崩れ	-10.5508
彼の頭	-10.5524
賞	-10.553
出来ん	-10.5544
が出来て	-10.5576
凝	-10.5594
事だけは	-10.5605
間違い	-10.5607
熱心	-10.5615
面倒な	-10.562
だかわからない	-10.5666
されど	-10.5685
勝手な	-10.5695
予期して	-10.5742
私だけ	-10.5744
売る	-10.5747
のほうで	-10.575
臭	-10.5765
められた	-10.5785
吸	-10.5795
漫	-10.5822
の室に	-10.5831
鈴木	-10.5848
瞬	-10.5852
人間として	-10.5854
ちっと	-10.5856
腰をかけて	-10.5861
未	-10.5862
係	-10.5885
製造	-10.5885
美学	-10.5886
宙	-10.5887
墨	-10.5887
ツ	-10.5887
嬢	-10.5887
智識	-10.5887
銘	-10.5888
師範	-10.5888
但し	-10.5888
湧	-10.5888
律	-10.5888
資	-10.5889
拳	-10.5889
神楽坂	-10.5889
塀	-10.5889
鮮	-10.5889
煽	-10.5889
褒	-10.5889
胃病	-10.589
茫	-10.589
述べる	-10.589
旦	-10.589
頓	-10.589
街	-10.5891
構いません	-10.5891
咳	-10.5891
博物	-10.5891
といえども	-10.5891
たとえば	-10.5892
通り抜けて	-10.5892
朧	-10.5892
酌	-10.5892
だなあ	-10.5892
乳	-10.5892
いいかげん	-10.5892
ちまった	-10.5892
鑑定	-10.5892
綴	-10.5892
窺	-10.5892
操	-10.5892
築	-10.5892
麺	-10.5892
鞭	-10.5893
日が暮れ	-10.5893
のではなかろうか	-10.5893
と云われた	-10.5893
楼	-10.5893
一緒に	-10.5893
奔走	-10.5893
w	-10.5893
血潮	-10.5893
林	-10.5893
緩くり	-10.5893
寿命	-10.5893
祈	-10.5893
c	-10.5893
製	-10.5893
多々良さん	-10.5893
叫び	-10.5893
ふらふら	-10.5893
彫	-10.5894
御存じ	-10.5894
ヨシちゃん	-10.5894
つづいて	-10.5894
実を云うと	-10.5894
ぶら下げて	-10.5894
なさらない	-10.5894
率	-10.5894
雑巾	-10.5894
万歳	-10.5894
格別	-10.5894
吉原	-10.5895
を離れた	-10.5895
洒落	-10.5895
ぐるりと	-10.5895
米	-10.5895
仰しゃ	-10.5896
冷やか	-10.5896
思案	-10.5896
仮定	-10.5896
引っ張り	-10.5896
0	-10.5897
経過	-10.5897
奥さんとお嬢さん	-10.5897
道具	-10.5897
疑問	-10.5898
読書	-10.5898
黄色	-10.5898
と言いだした	-10.5899
文芸	-10.5899
おれと山嵐	-10.5899
予言	-10.5901
困ります	-10.5901
好かろう	-10.5901
無言で	-10.5901
理論	-10.5902
暖かい	-10.5903
めったに	-10.5903
縁談	-10.5903
短かい	-10.5904
いちども	-10.5905
さらに	-10.5905
ほぼ	-10.5906
二枚	-10.5907
長い手紙を	-10.5907
歩き出した	-10.5907
を追い	-10.5908
事のできない	-10.5909
作成	-10.5909
兼ね	-10.5912
抑えて	-10.5913
付けられた	-10.5914
一個	-10.5915
積み	-10.592
不都合	-10.5922
居りました	-10.5922
水彩画	-10.5923
夕方	-10.5925
建て	-10.5925
こいつ	-10.5927
顔付	-10.5928
払った	-10.5929
代さん	-10.5931
わからなかった	-10.5933
飯を食う	-10.5935
暑さ	-10.5937
薄暗い	-10.5938
中途で	-10.5942
帰って来る	-10.5943
ものと見えて	-10.5948
かたまって	-10.5948
せめて	-10.5953
文学者	-10.5954
うえに	-10.5956
亡	-10.5965
今頃	-10.5969
変っている	-10.5972
着けて	-10.5973
坐っていた	-10.5976
は思え	-10.5991
心地	-10.5995
包み	-10.6003
睨め	-10.6006
どこにも	-10.6016
やって来た	-10.6017
を作って	-10.6027
しようがない	-10.6036
去った	-10.6038
のほうは	-10.6039
に会って	-10.6043
る事が出来なかった	-10.6083
遣った	-10.6093
にはならない	-10.6102
惚れ	-10.6126
隠して	-10.6134
客間	-10.6144
移した	-10.6155
異な	-10.6158
お互い	-10.616
親しく	-10.6178
こんなもの	-10.6193
眺めていた	-10.6197
借りる	-10.6215
詩人	-10.6215
出来ている	-10.6223
つもりです	-10.6243
覚えてい	-10.6251
腹の中	-10.6274
所々	-10.6289
室の中	-10.6289
と信じ	-10.6309
わかって	-10.6325
四方	-10.6336
喧嘩をして	-10.6337
を探し	-10.6406
責	-10.6413
互いに	-10.6445
話を始めた	-10.6466
収め	-10.6471
平岡君	-10.6471
の方を向いて	-10.6489
乱暴だ	-10.6498
角屋	-10.6508
そこまで	-10.6513
されました	-10.6515
仕方がありません	-10.6519
換え	-10.6525
て来たのです	-10.656
ようじゃないか	-10.6572
落す	-10.6578
を得て	-10.6621
らしく見え	-10.6626
しとき	-10.664
何遍	-10.6655
わが身	-10.6681
便所	-10.6687
役に立	-10.6687
だったので	-10.6699
薄暗	-10.6702
八っちゃん	-10.6711
椽	-10.6712
見つめてい	-10.6714
グ	-10.6716
曝	-10.6718
建築	-10.672
糞	-10.672
ギ	-10.672
弊	-10.6721
しばし	-10.6721
に極っている	-10.6721
稲	-10.6722
党	-10.6722
徴	-10.6722
章	-10.6722
完	-10.6722
袷	-10.6722
政	-10.6722
奏	-10.6723
烏	-10.6723
籍	-10.6723
豪	-10.6723
県	-10.6723
瓶	-10.6723
複雑	-10.6723
朝から晩まで	-10.6723
偽善	-10.6724
ガ	-10.6724
取り残され	-10.6724
純	-10.6724
郎	-10.6724
かも知れぬ	-10.6724
擲	-10.6724
臆病	-10.6724
維	-10.6724
淫売婦	-10.6724
結構な	-10.6725
難有い	-10.6725
雄	-10.6725
徊	-10.6725
膨	-10.6725
衆	-10.6725
禁	-10.6725
寛	-10.6725
肥	-10.6725
叶	-10.6725
頑	-10.6726
酷	-10.6726
太陽	-10.6726
預	-10.6726
麦	-10.6726
よろしく	-10.6726
迹	-10.6726
順序	-10.6726
かしこま	-10.6726
蓄	-10.6726
もう一ぺん	-10.6726
辱	-10.6726
すましている	-10.6726
制作に	-10.6726
営	-10.6726
衰	-10.6727
不可思議	-10.6727
繁	-10.6727
でございましょう	-10.6727
到着	-10.6727
飼	-10.6727
症	-10.6727
おのずから	-10.6727
謂わば	-10.6727
j	-10.6727
演芸会	-10.6727
礼を述べた	-10.6727
愈	-10.6727
懇	-10.6727
構わん	-10.6727
鼓動	-10.6727
粛	-10.6727
見識	-10.6727
まっすぐに	-10.6727
紺	-10.6727
癇癪	-10.6727
咄	-10.6727
を捕まえて	-10.6728
その翌日	-10.6728
孔雀	-10.6728
肱	-10.6728
給仕	-10.6728
瞳	-10.6728
銀座	-10.6728
すわった	-10.6728
告白	-10.6728
働らく	-10.6729
に似合わ	-10.6729
否定	-10.6729
独立	-10.673
やすい	-10.673
御師匠さん	-10.673
例によって	-10.673
視線	-10.673
第三	-10.673
状袋	-10.673
近ごろ	-10.6731
大胆	-10.6732
同類	-10.6732
遂行	-10.6732
文科	-10.6732
縁故	-10.6732
に達した	-10.6733
光沢	-10.6733
信頼	-10.6733
太平	-10.6734
▁201	-10.6734
も云わずに	-10.6734
を失った	-10.6734
見当がつか	-10.6735
仰山	-10.6735
徳利	-10.6735
傾向	-10.6735
地震	-10.6736
持たせ	-10.6736
と言われ	-10.6737
乗せて	-10.6737
しかるに	-10.6737
てもらいたい	-10.6737
蕎麦屋	-10.6737
膝の上に	-10.6739
喜び	-10.6739
小川さん	-10.674
参りました	-10.6741
気の毒そうに	-10.6742
と迷亭が	-10.6742
私に取って	-10.6742
困らない	-10.6743
行けば	-10.6743
持って行った	-10.6744
抜ける	-10.6744
一匹	-10.6747
墓地	-10.6748
引き返して	-10.6751
平成	-10.6751
罪悪	-10.6751
表面	-10.6754
このファイル	-10.6754
違います	-10.6755
不便	-10.6756
隠す	-10.6756
出て来ない	-10.6757
生きてる	-10.6758
寝室	-10.6761
の所へ行って	-10.6762
やって来て	-10.6763
消息	-10.6763
ではありませんでした	-10.6765
と同じような	-10.6767
もなかろう	-10.6768
古賀君	-10.677
思い切った	-10.6772
を読んでいる	-10.6779
会合	-10.6779
言訳	-10.6781
好くない	-10.6781
一丁	-10.6782
聞かなかった	-10.6785
好んで	-10.6786
無事に	-10.679
床の間	-10.6795
電気	-10.6812
年寄	-10.6813
先ず	-10.6814
買物	-10.6818
其所へ	-10.6818
自覚心	-10.6832
と広田先生が	-10.6841
捜し	-10.6842
出入り	-10.6853
ような顔をして	-10.6855
見給え	-10.6865
間に合わ	-10.6887
移った	-10.6899
気にかか	-10.6904
はずです	-10.6906
好かれ	-10.6914
超然	-10.6928
美人	-10.6932
行ける	-10.6955
途中	-10.6983
た事のない	-10.6988
事も出来	-10.7012
こんな事	-10.7014
根気	-10.7028
手に持った	-10.7034
僕は君	-10.7035
ても構わない	-10.7038
を信じ	-10.705
隠れ	-10.7062
おかし	-10.7073
様に思われ	-10.7074
聞いてみ	-10.708
ようになる	-10.708
するつもりだ	-10.7087
聞き返し	-10.7097
代助は黙って	-10.7098
判然しない	-10.7123
いっしょ	-10.7144
埋	-10.7157
働いて	-10.7166
破れ	-10.7206
休んで	-10.7257
坐り	-10.7269
と一般で	-10.7289
纏	-10.7331
疲	-10.7339
を通して	-10.7346
書け	-10.7358
を帯びてい	-10.7408
絶え	-10.7423
同じ事だ	-10.7441
堪え	-10.7498
開き	-10.75
る度に	-10.7501
と同じ事で	-10.7525
浴衣	-10.7537
延びて	-10.7538
建	-10.7574
むずかし	-10.7587
飾	-10.7601
物足り	-10.7603
繰	-10.7604
ファイル	-10.7605
遍	-10.7606
甚	-10.7608
露悪家	-10.7624
粗末	-10.7625
邪	-10.7627
即	-10.7628
豪傑	-10.7628
撫でて	-10.7628
坪	-10.7629
疋	-10.7629
こんど	-10.7629
卸	-10.763
帰りがけに	-10.763
験	-10.763
些	-10.7631
二十世紀	-10.7632
歓迎	-10.7632
凹	-10.7632
絣	-10.7632
随意	-10.7632
神経衰弱	-10.7632
原稿	-10.7632
鯛	-10.7632
ダ	-10.7632
塩	-10.7632
菊	-10.7632
悲劇	-10.7633
山城屋	-10.7633
ステッキ	-10.7633
直ちに	-10.7633
あいにく	-10.7633
楽しみ	-10.7633
倉	-10.7634
それ以来	-10.7634
渦	-10.7634
別荘	-10.7634
テーブル	-10.7634
課	-10.7634
臆	-10.7634
絹	-10.7634
もう一返	-10.7634
昂奮	-10.7634
同級生	-10.7635
めんどう	-10.7635
六百円	-10.7635
藉	-10.7635
畏	-10.7635
懲	-10.7635
すまない	-10.7635
顋	-10.7635
一方では	-10.7635
佐川の娘	-10.7635
水蜜桃	-10.7635
甘木先生	-10.7635
ぽかんと	-10.7635
戟	-10.7635
消極的	-10.7635
独逸	-10.7635
鈴	-10.7635
叫	-10.7635
剤	-10.7635
怪しからん	-10.7636
イブセン	-10.7636
耳を傾け	-10.7636
保証	-10.7636
俳句	-10.7636
躊躇した	-10.7636
難有う	-10.7636
http	-10.7636
y	-10.7636
z	-10.7636
ンティ	-10.7636
俺	-10.7636
▁底本	-10.7636
ww	-10.7636
支店長	-10.7636
備	-10.7636
ハムレット	-10.7636
候補者	-10.7636
零	-10.7636
恐るべき	-10.7636
ゲ	-10.7636
佐	-10.7636
気遣はない	-10.7636
セリヌンティウス	-10.7636
馴	-10.7636
バケツ	-10.7637
保護	-10.7637
西洋料理	-10.7637
乞食	-10.7637
出来上った	-10.7637
テル	-10.7637
大いなる	-10.7637
詳しい	-10.7637
なんにもない	-10.7637
注射	-10.7637
甥	-10.7637
雑司ヶ谷	-10.7637
綺麗	-10.7638
大切な	-10.7638
制服	-10.7638
そのくせ	-10.7638
丹	-10.7638
心持ちがする	-10.7638
綱	-10.7638
修業	-10.7638
毎日毎日	-10.7638
▁堀木は	-10.7638
構えている	-10.7639
完全に	-10.7639
画工	-10.7639
転任	-10.764
活版	-10.764
分らなかった	-10.7641
読ま	-10.7641
残らず	-10.7641
動揺	-10.7642
造作	-10.7642
に応じて	-10.7642
馬鹿竹	-10.7643
親友	-10.7643
を穿いて	-10.7643
主意	-10.7644
と東風君が	-10.7644
改めて	-10.7644
なんとなく	-10.7644
向こう側	-10.7644
宜しく	-10.7644
従妹	-10.7645
衣食	-10.7645
日蓮	-10.7646
無駄	-10.7646
丁度	-10.7646
くせに	-10.7646
を研究する	-10.7647
異性	-10.765
相互	-10.7653
話しかけた	-10.7654
苦情	-10.7654
発明	-10.7656
不具	-10.7658
ふっと	-10.7659
国元	-10.7661
初出	-10.7662
どこへ行く	-10.7663
帰らない	-10.7664
すべからざる	-10.7664
っこない	-10.7665
風流	-10.7667
不自由	-10.7668
いつものように	-10.7669
おけば	-10.7669
取られた	-10.7669
新しく	-10.767
ありゃ	-10.7672
会場	-10.7674
来客	-10.7676
どうでもいい	-10.7676
批評家	-10.7682
長い間	-10.7683
の周囲に	-10.7684
物足りない	-10.7684
事になりました	-10.7684
生命	-10.7686
読まない	-10.7687
見た事がない	-10.7689
近づき	-10.769
白髪	-10.7692
出掛けて行	-10.7694
られぬ	-10.7695
できている	-10.7695
必要はない	-10.7697
と独仙君は	-10.7698
くさい	-10.7698
落ちている	-10.7707
出さない	-10.7709
抱き	-10.7715
はいって来た	-10.7718
事を云って	-10.7724
三年前	-10.7727
を抱いて	-10.7733
捕え	-10.7735
と思われる	-10.7745
父と兄	-10.7748
を動かして	-10.7767
に当る	-10.7788
の前まで	-10.7796
低く	-10.7802
を想像して	-10.7806
世話をして	-10.781
では無い	-10.7831
持って行って	-10.7838
トラ	-10.7838
と私と	-10.7852
着いた時	-10.7857
奇麗	-10.7882
着換	-10.7884
飲め	-10.7888
ながめている	-10.7892
くなります	-10.7895
気はなかった	-10.7935
車へ乗	-10.7937
纏め	-10.7945
る事が出来た	-10.7976
いただき	-10.8008
いるのだか	-10.8026
触	-10.8033
念のため	-10.8063
ものとみえ	-10.8141
売れ	-10.8176
へはいり	-10.8266
言いつけ	-10.8302
音がした	-10.8304
晴	-10.833
惚	-10.8337
ればいいのに	-10.8351
引越	-10.843
永久	-10.8465
持ったまま	-10.8482
凝としてい	-10.8513
ぎれ	-10.855
事ができなかった	-10.857
凡	-10.8592
払	-10.8609
識	-10.8615
胆	-10.8618
貌	-10.8619
事はありません	-10.8625
測	-10.8626
勘太郎	-10.8626
必	-10.8627
繰り返す	-10.8627
なおさら	-10.8628
英	-10.8628
壮	-10.8628
法律	-10.8628
いちど	-10.8628
御免蒙	-10.8629
志	-10.8629
熱誠	-10.8629
知らせて	-10.8629
ヘ	-10.863
麗	-10.8631
出鱈目	-10.8631
朗	-10.8631
到	-10.8631
妾	-10.8631
喋舌る	-10.8631
狡	-10.8632
謹聴	-10.8632
知っていました	-10.8632
大きな声を出す	-10.8632
頼まれた	-10.8632
巴	-10.8632
及ばない	-10.8632
舟	-10.8632
眸	-10.8633
遥	-10.8633
すなわち	-10.8633
ワ	-10.8633
州	-10.8633
洋服	-10.8634
曾呂崎	-10.8634
ペ	-10.8634
鰻	-10.8634
諾	-10.8634
延びる	-10.8634
敗	-10.8634
美くしい	-10.8634
太郎	-10.8634
斜	-10.8634
陳腐	-10.8634
道化	-10.8634
還	-10.8634
氏	-10.8634
胡	-10.8634
垣根	-10.8634
述べて	-10.8634
可哀想	-10.8634
まともに	-10.8634
疎	-10.8634
小刀	-10.8634
の如き	-10.8634
奮発して	-10.8634
鞄	-10.8635
孤独	-10.8635
未練	-10.8635
大人しく	-10.8635
ください	-10.8635
の意を表	-10.8635
くすくす	-10.8635
してみよう	-10.8635
冥	-10.8635
提げて	-10.8635
きわめて	-10.8635
存じません	-10.8635
ふわふわ	-10.8635
そっち	-10.8635
ョ	-10.8635
どうかこうか	-10.8635
逐	-10.8635
竦	-10.8635
大久保	-10.8635
物質的	-10.8635
埃	-10.8636
慮	-10.8636
疳	-10.8636
汝	-10.8636
現われた	-10.8636
ぱっと	-10.8636
ごまかし	-10.8636
二週間	-10.8636
週	-10.8636
u	-10.8636
落ち付き	-10.8636
に倚り	-10.8636
l	-10.8636
m	-10.8636
光線の圧力	-10.8636
元禄	-10.8636
予想	-10.8636
余っ程	-10.8636
延岡	-10.8636
アネサ	-10.8636
殴	-10.8636
遊戯	-10.8636
刹那	-10.8636
退校	-10.8636
府	-10.8636
ぐうぐう	-10.8636
司	-10.8636
繋	-10.8636
裸体	-10.8636
呈	-10.8636
お父さんの	-10.8636
吹聴して	-10.8637
皮膚	-10.8637
みずから	-10.8637
応対	-10.8637
朋友	-10.8637
にわかに	-10.8637
にやにや笑っている	-10.8637
或いは	-10.8637
久し振りで	-10.8637
しまえば	-10.8637
長火鉢	-10.8637
かんかん	-10.8637
旗	-10.8637
ごちそう	-10.8637
なつかし	-10.8638
元の通り	-10.8638
鉄瓶	-10.8638
やむを得ず	-10.8638
未亡人	-10.8638
とらわれ	-10.8638
真面目な顔をして	-10.8638
あちら	-10.8638
口を開いた	-10.8638
黙然として	-10.8638
軒燈	-10.8638
断わった	-10.8638
百合の	-10.8638
やめてしまった	-10.8638
錯	-10.8638
非難	-10.8639
ごろごろ	-10.8639
逞	-10.8639
りゃしません	-10.8639
装置	-10.8639
酒を飲む	-10.8639
のらくら	-10.8639
恭しく	-10.8639
露骨	-10.864
修正	-10.864
覚束な	-10.864
胆力	-10.864
いくつ	-10.864
期待	-10.864
がたくさんある	-10.864
中途	-10.864
下宿へ帰った	-10.8641
どこからか	-10.8641
伴れて	-10.8641
信仰	-10.8641
低い声で	-10.8641
統	-10.8641
ことさらに	-10.8642
ナイフ	-10.8642
致し候	-10.8642
体裁	-10.8642
反射	-10.8642
安全	-10.8642
断わって	-10.8642
直線	-10.8643
十一時	-10.8643
なのだろうか	-10.8643
酒を飲み	-10.8643
打ち消	-10.8644
なにしろ	-10.8644
新聞社	-10.8644
反動	-10.8645
吾々	-10.8645
何とも答え	-10.8646
を疑った	-10.8646
直接	-10.8646
双方とも	-10.8647
詫び	-10.8648
を動かす	-10.8649
彼自身	-10.865
運び	-10.865
とは違って	-10.8651
発作	-10.8652
殺された	-10.8653
生垣	-10.8654
赤面し	-10.8654
工面	-10.8655
苦もなく	-10.8655
断わり	-10.8657
隙間	-10.8657
溜息	-10.8658
仕様	-10.8659
今の世	-10.866
に響いた	-10.8661
方針	-10.8663
肉体	-10.8663
美しく	-10.8663
もともと	-10.8664
それにしても	-10.8668
学校へ行って	-10.8668
おろして	-10.8669
近々	-10.8669
いまだに	-10.867
の所為	-10.8675
閉じ	-10.8678
を被って	-10.8679
間柄	-10.8682
釣れ	-10.8683
構わず	-10.8683
なくっちゃいけない	-10.8685
前へ出た	-10.8689
と野々宮さんが	-10.8695
曲がって	-10.8703
のもとに	-10.8704
貸家	-10.8717
を知ってるか	-10.8731
を添え	-10.8755
もとより	-10.8767
役者	-10.8776
しぜん	-10.88
気を付け	-10.8808
うちへ帰って	-10.881
過ごし	-10.8811
いわせ	-10.8821
傘	-10.8826
らいいでしょう	-10.8831
染め	-10.8855
寐ている	-10.8883
声を掛け	-10.8906
口を切	-10.8909
てやれ	-10.8973
ぱ	-10.8996
お蔭で	-10.9002
第	-10.9039
世間的	-10.9045
五寸	-10.905
理解し	-10.914
奥行	-10.9157
払わ	-10.9161
門を出	-10.9252
三日前	-10.9257
縛られ	-10.9267
已	-10.9464
十五六	-10.9492
そうな顔をして	-10.9537
に接し	-10.9544
睨	-10.9574
知れてい	-10.9591
を向いた	-10.9601
認められ	-10.9622
告	-10.9657
勇	-10.9678
腰をかけた	-10.9688
双	-10.9695
きれい	-10.9702
漸	-10.9722
の事を考え	-10.9725
昨	-10.9728
覧	-10.9729
廻わす	-10.9731
ぽかりと	-10.9731
模	-10.9736
概	-10.9738
陣	-10.9738
臓	-10.9738
堀	-10.9739
こっそり	-10.974
派	-10.974
笛	-10.974
童	-10.974
爛	-10.9741
煤	-10.9741
皇	-10.9741
寄宿生	-10.9742
憤	-10.9742
管	-10.9742
気が付かずにい	-10.9743
ホホホホ	-10.9743
一段落	-10.9743
要求	-10.9743
髄	-10.9743
鶏	-10.9743
源	-10.9743
柵	-10.9743
装飾	-10.9743
歌舞伎座	-10.9743
高尚な	-10.9744
擲きつけ	-10.9744
捕まえ	-10.9744
どころではない	-10.9744
蹟	-10.9744
遊廓	-10.9744
録	-10.9744
征	-10.9745
掩	-10.9745
三輪田のお光さん	-10.9745
ハハハ	-10.9745
雅	-10.9745
猛烈な	-10.9745
謡	-10.9745
さいわい	-10.9745
にやにやと笑った	-10.9745
佳	-10.9745
ついでだから	-10.9745
痒	-10.9745
じゃあるまいし	-10.9745
幻	-10.9745
好い加減な	-10.9745
陳	-10.9745
いか銀	-10.9745
放蕩	-10.9745
恐らく	-10.9745
茎	-10.9745
鬱	-10.9745
沓	-10.9746
腰を卸した	-10.9746
フロックコート	-10.9746
必死の	-10.9746
粗	-10.9746
披	-10.9746
陶	-10.9746
面白そうに	-10.9746
菅	-10.9746
政治	-10.9746
準備	-10.9746
糖	-10.9746
条件	-10.9746
の大部分	-10.9746
英雄	-10.9746
を講じ	-10.9746
婿	-10.9746
に横たわる	-10.9746
抵抗	-10.9746
植木屋	-10.9746
なまじい	-10.9746
募	-10.9746
携	-10.9746
芽	-10.9746
柔らか	-10.9747
無頓着で	-10.9747
喘	-10.9747
渇	-10.9747
周旋して	-10.9747
渉	-10.9747
定めし	-10.9747
頻	-10.9747
シャンパン	-10.9747
古風な	-10.9747
ずにはいられなかった	-10.9747
に陥った	-10.9747
忙がしい	-10.9747
尚	-10.9747
ほんとう	-10.9747
洋盃	-10.9747
マダム	-10.9747
さっそく	-10.9747
そのうえ	-10.9747
径	-10.9747
どっか	-10.9747
辞表を	-10.9747
をつらまえて	-10.9747
噺	-10.9747
斜めに	-10.9747
烟草を吹か	-10.9747
弱虫	-10.9747
崎	-10.9747
蒙	-10.9747
悪戯	-10.9747
感ぜられた	-10.9747
老婆は	-10.9747
痴	-10.9748
クラス	-10.9748
取次に出	-10.9748
出掛ける	-10.9748
瓜	-10.9748
私の過去を	-10.9748
向う側	-10.9748
好い加減に	-10.9748
稍	-10.9748
芝生	-10.9748
慎	-10.9748
理科大学	-10.9748
蜂	-10.9748
丈	-10.9748
炭	-10.9748
容赦なく	-10.9748
甕	-10.9748
できあが	-10.9748
級	-10.9748
恐れ入った	-10.9749
暗闇	-10.9749
惜しい事に	-10.9749
隠居	-10.9749
落ち付か	-10.9749
防	-10.9749
階段	-10.9749
旧友	-10.9749
双方共	-10.9749
広げて	-10.9749
眩	-10.975
駒	-10.975
に住む	-10.975
やめにした	-10.9751
際限	-10.9751
休養	-10.9751
現実世界	-10.9751
浜田	-10.9751
惚れられる	-10.9751
幽かに	-10.9751
注いで	-10.9752
返事をしなかった	-10.9752
詫まる	-10.9752
六尺	-10.9753
ルド	-10.9755
驚かされた	-10.9755
叱られる	-10.9755
向き直っ	-10.9755
不思議な事に	-10.9755
ではあるが	-10.9755
禿げ	-10.9756
事もありました	-10.9756
文学士	-10.9757
平和	-10.9757
しゃがんで	-10.9757
私の心は	-10.9757
6)	-10.9757
馬鹿野郎	-10.9758
ごはん	-10.9758
と信じている	-10.9758
宅へ帰って	-10.9758
きらい	-10.9759
こうなると	-10.9759
点に於て	-10.9759
この二つの	-10.9759
下りる	-10.9759
なすって	-10.9759
言えば	-10.976
畳の上へ	-10.976
画筆	-10.976
よごれ	-10.976
噴き出	-10.9761
気づか	-10.9761
椽の下	-10.9762
僕等	-10.9763
のぞいて	-10.9767
へ着いて	-10.9768
に似て	-10.9771
引き受けた	-10.9772
を見つめている	-10.9774
進行し	-10.9779
丘の上	-10.9781
を去る	-10.9781
妙な顔をして	-10.9782
抛げ	-10.9785
氷水	-10.9788
学校へ行く	-10.979
の話を聞いて	-10.9804
を呑んで	-10.9805
駄目です	-10.9825
の云う通り	-10.9835
を入れた	-10.984
すくんで	-10.9841
に訴えて	-10.9842
葉ちゃん	-10.9855
を有して	-10.9858
を買いに	-10.9867
二三日前	-10.9869
る事ができた	-10.9873
汽	-10.989
の重み	-10.9893
と与次郎が言っ	-10.9952
へ向けて	-10.9966
落ちついて	-10.9978
今の自分	-10.9985
ております	-10.999
ためでもあ	-10.999
のほうから	-10.9993
衣を着	-10.9994
始まって	-11.0005
音がして	-11.0034
板の間	-11.0036
取り寄せ	-11.0038
を変え	-11.0125
い思いを	-11.0163
パイプを	-11.0176
はしません	-11.018
忘れてしま	-11.0223
どうなっ	-11.0223
じゃけれ	-11.0263
考え込んでい	-11.0272
認める	-11.0299
に必要な	-11.0336
送ってくれ	-11.0346
てくれろと	-11.0374
解ってい	-11.0407
単純	-11.0462
眠くな	-11.0489
見回し	-11.0562
音を立て	-11.06
ちゃいけません	-11.0612
に連れて行	-11.0692
ふいと	-11.0762
をしめ	-11.0797
を研究し	-11.084
に思われた	-11.0844
差支	-11.087
らっしゃ	-11.0919
発展し	-11.092
手拭を	-11.0926
古賀	-11.0927
ツユ	-11.0935
水彩	-11.095
御世辞	-11.096
たまらなく	-11.0975
随	-11.0982
膏	-11.0985
差し支え	-11.0985
彩	-11.0986
翻	-11.0987
及ばん	-11.0988
迫	-11.0988
20	-11.0988
賛	-11.0988
器量	-11.0989
赤ん坊	-11.0989
隈	-11.0989
審	-11.0989
梯	-11.099
巨人引力	-11.099
平気なもので	-11.099
哲	-11.099
小供の時から	-11.099
涙を流し	-11.0991
各自	-11.0991
齢	-11.0991
伊	-11.0991
の一部分を	-11.0992
革	-11.0992
惑	-11.0992
唯一の	-11.0992
ベーコン	-11.0992
欧	-11.0992
措	-11.0992
溌	-11.0992
宣	-11.0992
ぐいぐい	-11.0992
おきたい	-11.0993
脈	-11.0993
菜	-11.0993
挿	-11.0993
遣り込め	-11.0993
僅	-11.0993
比べて	-11.0993
コップ	-11.0993
天道公平	-11.0994
脛	-11.0994
酬	-11.0994
ひょいと	-11.0994
日露戦争	-11.0994
御嬢さん	-11.0994
獣	-11.0994
風に吹かれ	-11.0994
尖	-11.0994
誓	-11.0994
闘	-11.0994
仰向けに	-11.0994
糊	-11.0994
幾度か	-11.0994
磯	-11.0994
学校を卒業して	-11.0994
野蛮	-11.0995
賀	-11.0995
見せびらか	-11.0995
惰	-11.0995
気がつかなかった	-11.0995
馬鹿馬鹿しい	-11.0995
蘭	-11.0995
嘘をつく	-11.0995
一カ月	-11.0995
動静を	-11.0995
健	-11.0995
に乗じて	-11.0995
薩	-11.0995
入鹿	-11.0995
生意気な	-11.0995
とは思わなかった	-11.0995
銅	-11.0995
カフエ	-11.0995
好加減に	-11.0995
銅像	-11.0995
迷える子	-11.0995
福	-11.0995
ヘーゲル	-11.0996
唸	-11.0996
釜	-11.0996
協	-11.0996
あらかじめ	-11.0996
畠	-11.0996
肺	-11.0996
扇	-11.0996
聯	-11.0996
廂	-11.0996
萌	-11.0996
融	-11.0996
唯	-11.0996
謹	-11.0996
俸	-11.0997
孤	-11.0997
凌	-11.0997
籃	-11.0997
妨	-11.0997
斃	-11.0997
ェ	-11.0997
T	-11.0998
瘠	-11.0998
殻	-11.0998
掘	-11.0998
駅	-11.0998
堤	-11.0998
唄	-11.0998
飴	-11.0999
鍵	-11.0999
匙	-11.1002
忘	-11.204
与	-11.2165
訴	-11.2181
咲	-11.2276
掃	-11.2336
婦	-11.2339
按	-11.2409
桐	-11.2415
熊	-11.2416
篤	-11.2418
侮	-11.2419
峠	-11.2419
雁	-11.2419
憫	-11.2419
炉	-11.2419
嗜	-11.242
賤	-11.242
準	-11.242
辿	-11.242
磔	-11.2421
囁	-11.2421
漕	-11.2421
励	-11.2422
奸	-11.2422
泉	-11.2422
液	-11.2422
環	-11.2422
捩	-11.2422
蜜	-11.2423
贋	-11.2423
婚	-11.2423
崖	-11.2423
乞	-11.2423
託	-11.2423
ノ	-11.2423
峰	-11.2423
基	-11.2423
蔽	-11.2423
煎	-11.2423
ゼ	-11.2423
賽	-11.2424
値	-11.2424
錠	-11.2424
冠	-11.2424
掲	-11.2424
創	-11.2424
霧	-11.2424
鴨	-11.2424
暁	-11.2425
溺	-11.2425
獅	-11.2425
辻	-11.2425
髷	-11.2425
竿	-11.2425
爵	-11.2425
殖	-11.2425
縦	-11.2425
暫	-11.2425
笠	-11.2425
聚	-11.2425
瀬	-11.2425
喩	-11.2425
梢	-11.2425
蟻	-11.2425
翳	-11.2425
贈	-11.2425
d	-11.2425
吊	-11.2425
濠	-11.2425
貯	-11.2426
蘇	-11.2426
償	-11.2426
貪	-11.2426
呪	-11.2426
鍋	-11.2426
薪	-11.2426
α	-11.2426
忠	-11.2426
設	-11.2427
椿	-11.2427
藩	-11.2427
脂	-11.2427
剃	-11.2427
傑	-11.2427
燻	-11.2427
漲	-11.2428
季	-11.2428
聊	-11.2428
鴉	-11.2428
絡	-11.2429
捜	-11.3409
卒	-11.3582
丘	-11.4034
訪	-11.4067
渓	-11.4072
剖	-11.4082
渾	-11.4082
芝	-11.4084
蚊	-11.4084
蝋	-11.4085
竈	-11.4085
歇	-11.4086
範	-11.4086
材	-11.4086
奨	-11.4087
稚	-11.4087
普	-11.4088
ヒ	-11.4088
鍔	-11.4088
閣	-11.4088
鬼	-11.4088
漆	-11.4088
撰	-11.4088
冴	-11.4089
帝	-11.4089
攻	-11.4089
偶	-11.4089
聳	-11.4089
併	-11.4089
踵	-11.4089
昇	-11.4089
廓	-11.4089
腑	-11.409
俥	-11.409
呻	-11.409
昂	-11.409
浚	-11.409
典	-11.4091
賊	-11.4091
腋	-11.4091
喚	-11.4091
援	-11.4091
叙	-11.4091
献	-11.4091
拙	-11.4091
浦	-11.4091
戴	-11.4091
濶	-11.4091
蔑	-11.4091
災	-11.4091
桟	-11.4091
篇	-11.4091
h	-11.4091
ヶ	-11.4091
迅	-11.4092
赦	-11.4092
鑑	-11.4092
槌	-11.4092
泡	-11.4092
缶	-11.4092
屑	-11.4092
櫛	-11.4093
繕	-11.4093
垢	-11.4093
茸	-11.4093
哂	-11.4093
迸	-11.4093
賦	-11.4093
狐	-11.4093
刃	-11.4093
扉	-11.4093
晶	-11.4093
姫	-11.4094
閃	-11.4094
停	-11.4094
癇	-11.4095
杖	-11.4095
箔	-11.4095
菌	-11.4099
尼	-11.4115
垂	-11.5718
葵	-11.6059
尋	-11.6064
療	-11.608
溝	-11.6081
博	-11.6081
×	-11.6081
鉛	-11.6081
梧	-11.6082
是	-11.6083
溢	-11.6083
曜	-11.6083
釘	-11.6084
砕	-11.6085
欅	-11.6085
弥	-11.6085
掬	-11.6086
賭	-11.6086
朴	-11.6086
陸	-11.6086
舶	-11.6088
闊	-11.6088
餓	-11.6088
羞	-11.6088
鯨	-11.6088
恭	-11.6089
財	-11.6089
睫	-11.6089
訊	-11.6089
蚤	-11.6089
『	-11.6089
』	-11.6089
塾	-11.6089
稿	-11.609
萎	-11.609
A	-11.609
倚	-11.609
ザ	-11.609
譚	-11.609
愁	-11.609
滞	-11.609
燥	-11.609
牧	-11.6091
葛	-11.6091
枡	-11.6091
瑣	-11.6091
嚇	-11.6091
楷	-11.6091
虐	-11.6091
鞘	-11.6091
尿	-11.6091
棲	-11.6091
蹲	-11.6091
繊	-11.6091
偏	-11.6091
鎮	-11.6091
蔓	-11.6091
浄	-11.6091
軌	-11.6091
庸	-11.6092
寓	-11.6092
譜	-11.6092
唖	-11.6092
吻	-11.6092
湿	-11.6092
撮	-11.6092
鮎	-11.6092
也	-11.6092
詣	-11.6092
b	-11.6092
函	-11.6092
薫	-11.6092
滝	-11.6092
脇	-11.6092
貨	-11.6092
俳	-11.6093
啜	-11.6093
惧	-11.6093
雷	-11.6093
伐	-11.6093
栓	-11.6093
閲	-11.6093
監	-11.6093
鋒	-11.6093
迄	-11.6093
潤	-11.6093
輿	-11.6094
淡	-11.6094
廿	-11.6094
洞	-11.6094
系	-11.6094
膿	-11.6094
霜	-11.6094
漁	-11.6095
諺	-11.6098
慣	-11.8185
噴	-11.8545
漠	-11.8557
猟	-11.8569
跳	-11.8572
那	-11.8575
劃	-11.8579
蓮	-11.858
寮	-11.8581
硯	-11.8581
臣	-11.8582
S	-11.8583
拗	-11.8583
挑	-11.8584
侵	-11.8585
耐	-11.8585
陋	-11.8585
蛍	-11.8587
艱	-11.8587
蛮	-11.8587
截	-11.8587
趨	-11.8588
冀	-11.8588
妓	-11.8588
楓	-11.8588
楚	-11.8588
摘	-11.8588
洲	-11.8588
諒	-11.8588
慚	-11.8588
蛙	-11.8588
痘	-11.8588
罎	-11.8589
鹿	-11.8589
慕	-11.8589
沿	-11.8589
脅	-11.8589
蒔	-11.8589
喊	-11.8589
M	-11.8589
淑	-11.8589
猥	-11.8589
籐	-11.859
盲	-11.859
吃	-11.859
斗	-11.859
庇	-11.859
熾	-11.859
簿	-11.859
粟	-11.859
沖	-11.859
匠	-11.859
躁	-11.859
誦	-11.859
享	-11.8591
雌	-11.8591
憶	-11.8591
寿	-11.8591
嚼	-11.8591
ヌ	-11.8591
恢	-11.8591
雫	-11.8591
窟	-11.8591
悦	-11.8591
盞	-11.8591
耶	-11.8591
梃	-11.8592
曾	-11.8592
縋	-11.8592
媚	-11.8592
屡	-11.8592
怯	-11.8592
樽	-11.8592
螺	-11.8592
沸	-11.8592
僻	-11.8592
牙	-11.8592
秀	-11.8592
患	-11.8592
苗	-11.8592
跛	-11.8592
〜	-11.8592
嗚	-11.8592
税	-11.8592
腥	-11.8592
貼	-11.8592
姪	-11.8592
茹	-11.8592
蕊	-11.8592
祐	-11.8593
慶	-11.8593
軸	-11.8593
燕	-11.8593
恵	-11.8593
帆	-11.8593
洛	-11.8593
詮	-11.8593
銷	-11.8593
倦	-11.8594
曙	-11.8594
輸	-11.8594
網	-11.8594
舎	-11.8594
慈	-11.8594
抽	-11.8594
喪	-11.8595
錬	-11.8595
箋	-11.8595
跟	-11.8595
絨	-11.8595
朽	-11.8595
拠	-11.8596
桃	-11.8596
麩	-11.8596
聟	-11.8597
契	-11.8597
蠅	-11.8597
覘	-11.8598
楊	-11.8601
P	-11.8603
各	-11.8604
燃	-12.163
馳	-12.1856
粋	-12.1883
臍	-12.189
嵩	-12.1899
抹	-12.1902
悉	-12.1902
蒲	-12.1905
狆	-12.1905
傚	-12.1906
項	-12.1908
辰	-12.1909
秒	-12.1909
堆	-12.191
讒	-12.1911
兎	-12.1911
架	-12.1911
撓	-12.1912
衒	-12.1912
廉	-12.1914
郡	-12.1915
蛸	-12.1915
糠	-12.1916
誉	-12.1917
儒	-12.1917
睦	-12.1918
摂	-12.1918
涸	-12.1918
楠	-12.1919
朔	-12.1919
蕩	-12.1919
型	-12.192
胎	-12.192
憺	-12.192
貢	-12.192
磁	-12.1921
亭	-12.1921
寡	-12.1921
肆	-12.1921
凍	-12.1922
碑	-12.1922
喙	-12.1922
雀	-12.1922
粥	-12.1922
嘗	-12.1922
鴻	-12.1923
貞	-12.1923
并	-12.1923
肋	-12.1923
累	-12.1923
捌	-12.1923
愧	-12.1923
索	-12.1923
穉	-12.1923
郭	-12.1923
濫	-12.1924
邦	-12.1924
鳶	-12.1924
嫉	-12.1924
剪	-12.1924
搏	-12.1924
滋	-12.1924
厄	-12.1924
吏	-12.1924
怨	-12.1924
痺	-12.1924
瞥	-12.1924
悧	-12.1924
採	-12.1924
Z	-12.1925
挽	-12.1925
繞	-12.1925
謁	-12.1925
亜	-12.1925
癲	-12.1925
禍	-12.1925
賑	-12.1925
霞	-12.1925
繩	-12.1925
史	-12.1925
妄	-12.1925
盥	-12.1925
絆	-12.1925
須	-12.1925
而	-12.1925
=	-12.1925
'	-12.1925
-	-12.1925
I	-12.1925
焙	-12.1925
牌	-12.1925
蟇	-12.1925
詛	-12.1925
饑	-12.1925
峯	-12.1926
檀	-12.1926
蟠	-12.1926
魄	-12.1926
粽	-12.1926
拉	-12.1926
旁	-12.1926
粕	-12.1926
ゾ	-12.1926
媒	-12.1926
脆	-12.1926
騰	-12.1926
綯	-12.1926
副	-12.1926
賄	-12.1926
錆	-12.1926
撒	-12.1926
涎	-12.1926
呉	-12.1926
瘋	-12.1926
肘	-12.1926
恕	-12.1927
慌	-12.1927
酪	-12.1927
鷹	-12.1927
旬	-12.1927
盟	-12.1927
鬢	-12.1927
賓	-12.1927
把	-12.1927
靠	-12.1927
討	-12.1928
燗	-12.1928
鏘	-12.1928
虞	-12.1928
踰	-12.1928
謀	-12.1929
克	-12.1929
鳩	-12.1929
靡	-12.193
絃	-12.1931
厨	-12.1931
斑	-12.1931
苔	-12.1933
魅	-12.1933
俵	-12.1936
騎	-12.1937
尤	-12.6845
猪	-12.6862
但	-12.6888
餌	-12.6891
仁	-12.6892
孑	-12.6897
戯	-12.6899
筍	-12.6902
傲	-12.6903
巫	-12.6903
囓	-12.6906
R	-12.6907
撥	-12.6911
厩	-12.6911
蝕	-12.6911
妍	-12.6911
錘	-12.6913
吝	-12.6914
諦	-12.6914
姑	-12.6914
灼	-12.6915
艀	-12.6915
顕	-12.6915
鶯	-12.6916
△	-12.6916
噫	-12.6916
柩	-12.6916
颯	-12.6916
岳	-12.6917
樗	-12.6917
訂	-12.6917
箆	-12.6918
航	-12.6918
朱	-12.6918
漾	-12.6918
菴	-12.6919
鋳	-12.6919
侯	-12.692
矯	-12.692
湛	-12.692
獰	-12.692
葺	-12.692
醸	-12.6921
鵜	-12.6921
攀	-12.6921
痞	-12.6922
倅	-12.6922
鉾	-12.6922
樟	-12.6922
誡	-12.6922
鋼	-12.6922
嵐	-12.6923
譴	-12.6923
倫	-12.6923
W	-12.6923
魯	-12.6923
G	-12.6923
拱	-12.6924
坑	-12.6924
宰	-12.6924
岐	-12.6924
梁	-12.6924
欝	-12.6924
詠	-12.6924
弩	-12.6924
複	-12.6924
壻	-12.6924
孟	-12.6924
枠	-12.6924
虻	-12.6924
歪	-12.6925
綜	-12.6925
慳	-12.6925
榻	-12.6925
璃	-12.6925
禽	-12.6925
菫	-12.6925
弧	-12.6925
辣	-12.6925
D	-12.6925
凋	-12.6925
弔	-12.6925
儘	-12.6925
唾	-12.6925
笞	-12.6925
鴎	-12.6925
剰	-12.6925
幟	-12.6925
挺	-12.6925
苺	-12.6925
謬	-12.6925
鏤	-12.6925
f	-12.6926
k	-12.6926
訐	-12.6926
摧	-12.6926
樋	-12.6926
妊	-12.6926
乍	-12.6926
奈	-12.6926
屁	-12.6926
峻	-12.6926
贏	-12.6926
踟	-12.6926
酸	-12.6926
饌	-12.6926
嗣	-12.6926
淀	-12.6926
兀	-12.6926
仄	-12.6926
仇	-12.6926
債	-12.6926
捺	-12.6926
斧	-12.6926
杳	-12.6926
炯	-12.6926
眷	-12.6926
麓	-12.6926
督	-12.6926
叡	-12.6927
槍	-12.6927
癬	-12.6927
芳	-12.6927
蟹	-12.6927
赫	-12.6927
丼	-12.6927
唆	-12.6927
啼	-12.6927
棕	-12.6927
尨	-12.6928
款	-12.6929
箙	-12.6929
櫓	-12.6929
屹	-12.6929
笊	-12.6929
鎧	-12.6929
符	-12.693
靄	-12.693
狩	-12.693
韓	-12.693
巷	-12.6932
窖	-12.6933
奔	-12.6938
哉	-12.694
偕	-12.6941
欣	-12.6943
齎	-13.6344
麿	-13.6345
鶉	-13.6346
鵞	-13.6347
鵝	-13.6348
魑	-13.6349
髴	-13.635
髣	-13.6351
骼	-13.6352
颶	-13.6353
靂	-13.6354
霹	-13.6355
阪	-13.6356
闖	-13.6357
鑷	-13.6358
鎬	-13.6359
鉤	-13.636
鄲	-13.6361
鄙	-13.6362
邯	-13.6363
邃	-13.6364
逗	-13.6365
逍	-13.6366
赧	-13.6367
賂	-13.6368
豁	-13.6369
謎	-13.637
誕	-13.6371
裳	-13.6372
袱	-13.6373
蟋	-13.6374
蟆	-13.6375
蟀	-13.6376
蝎	-13.6377
虜	-13.6378
蕉	-13.6379
葭	-13.638
莫	-13.6381
茲	-13.6382
苑	-13.6383
芭	-13.6384
膺	-13.6385
膈	-13.6386
聡	-13.6387
翰	-13.6388
罷	-13.6389
績	-13.639
縹	-13.6391
縷	-13.6392
緋	-13.6393
綻	-13.6394
絽	-13.6395
糟	-13.6396
簇	-13.6397
竇	-13.6398
窃	-13.6399
稼	-13.64
稟	-13.6401
禦	-13.6402
瞑	-13.6403
甎	-13.6404
瑟	-13.6405
犀	-13.6406
牟	-13.6407
牀	-13.6408
燐	-13.6409
灸	-13.641
灌	-13.6411
濤	-13.6412
濘	-13.6413
滾	-13.6414
滲	-13.6415
滄	-13.6416
淵	-13.6417
浩	-13.6418
泄	-13.6419
沌	-13.642
汐	-13.6421
毯	-13.6422
檻	-13.6423
樫	-13.6424
楯	-13.6425
棺	-13.6426
桑	-13.6427
曳	-13.6428
暦	-13.6429
斡	-13.643
擾	-13.6431
擱	-13.6432
擂	-13.6433
擁	-13.6434
摸	-13.6435
摯	-13.6436
掏	-13.6437
捷	-13.6438
拷	-13.6439
拇	-13.644
戮	-13.6441
懊	-13.6442
憲	-13.6443
憬	-13.6444
憧	-13.6445
慵	-13.6446
惘	-13.6447
怜	-13.6448
彗	-13.6449
弋	-13.645
廷	-13.6451
廠	-13.6452
庖	-13.6453
幡	-13.6454
嶋	-13.6455
嵌	-13.6456
崗	-13.6457
屍	-13.6458
娑	-13.6459
塚	-13.646
坦	-13.6461
嗾	-13.6462
嗽	-13.6463
哇	-13.6464
勾	-13.6465
凧	-13.6466
冤	-13.6467
僑	-13.6468
倶	-13.6469
俎	-13.647
俄	-13.6471
佩	-13.6472
仔	-13.6473
ヵ	-13.6474
ヰ	-13.6475
麹	-13.6476
饅	-13.6477
飢	-13.6478
韋	-13.6479
銚	-13.648
酢	-13.6481
軟	-13.6482
軋	-13.6483
跣	-13.6484
豹	-13.6485
該	-13.6486
註	-13.6487
褌	-13.6488
衍	-13.6489
蟾	-13.649
蝸	-13.6491
蜍	-13.6492
蚯	-13.6493
蚓	-13.6494
莨	-13.6495
芍	-13.6496
腎	-13.6497
脹	-13.6498
肪	-13.6499
縺	-13.65
紬	-13.6501
筵	-13.6502
礎	-13.6503
癈	-13.6504
痢	-13.6505
琶	-13.6506
琵	-13.6507
琲	-13.6508
珈	-13.6509
爆	-13.651
毘	-13.6511
檎	-13.6512
棍	-13.6513
梗	-13.6514
核	-13.6515
枳	-13.6516
杜	-13.6517
晰	-13.6518
旺	-13.6519
斟	-13.652
擬	-13.6521
擅	-13.6522
撻	-13.6523
撤	-13.6524
捻	-13.6525
拓	-13.6526
憮	-13.6527
恬	-13.6528
怺	-13.6529
弘	-13.653
廚	-13.6531
庄	-13.6532
嶺	-13.6533
峡	-13.6534
嬪	-13.6535
夥	-13.6536
圃	-13.6537
嗄	-13.6538
喀	-13.6539
咀	-13.654
吶	-13.6541
卿	-13.6542
僥	-13.6543
倹	-13.6544
倖	-13.6545
伍	-13.6546
v	-13.6547
鴦	-13.6548
鴛	-13.6549
鮑	-13.655
騙	-13.6551
饂	-13.6552
飩	-13.6553
閻	-13.6554
鍍	-13.6555
銃	-13.6556
邂	-13.6557
逡	-13.6558
逅	-13.6559
躑	-13.656
躅	-13.6561
踞	-13.6562
購	-13.6563
譫	-13.6564
諭	-13.6565
訛	-13.6566
襁	-13.6567
褓	-13.6568
褐	-13.6569
衡	-13.657
蠣	-13.6571
羹	-13.6572
簀	-13.6573
皰	-13.6574
畑	-13.6575
猜	-13.6576
牢	-13.6577
焔	-13.6578
澱	-13.6579
沁	-13.658
歔	-13.6581
忽	-13.6581
欷	-13.6582
櫃	-13.6583
檜	-13.6584
槽	-13.6585
榴	-13.6586
柘	-13.6587
暢	-13.6588
晦	-13.6589
昏	-13.659
撚	-13.6591
懃	-13.6592
慇	-13.6593
恍	-13.6594
恃	-13.6595
徨	-13.6596
徘	-13.6597
彷	-13.6598
弛	-13.6599
屓	-13.66
姥	-13.6601
妖	-13.6602
啓	-13.6603
刎	-13.6604
刊	-13.6605
傭	-13.6606
侶	-13.6607
伽	-13.6608
鮪	-13.6609
鬨	-13.661
馭	-13.6611
饒	-13.6612
郊	-13.6613
貝	-13.6614
茄	-13.6615
芹	-13.6616
繻	-13.6617
簾	-13.6618
窘	-13.6619
窒	-13.662
秩	-13.6621
瘤	-13.6622
瘡	-13.6623
痰	-13.6624
疱	-13.6625
甸	-13.6626
溶	-13.6627
浣	-13.6628
毀	-13.6629
掟	-13.663
捐	-13.6631
挫	-13.6632
扶	-13.6633
憊	-13.6634
徐	-13.6635
庁	-13.6636
幣	-13.6637
媼	-13.6638
壜	-13.6639
嚢	-13.664
喇	-13.6641
呵	-13.6642
叭	-13.6643
匿	-13.6644
劫	-13.6645
削	-13.6646
凸	-13.6647
雰	-13.6648
隷	-13.6649
陛	-13.665
鍮	-13.6651
鍛	-13.6652
輯	-13.6653
跪	-13.6654
跨	-13.6655
赴	-13.6656
襄	-13.6657
裟	-13.6658
袈	-13.6659
葡	-13.666
萄	-13.6661
菩	-13.6662
芥	-13.6663
耽	-13.6664
秤	-13.6665
畜	-13.6666
琥	-13.6667
珀	-13.6668
炬	-13.6669
汲	-13.667
抑	-13.667
椀	-13.6671
棋	-13.6672
捏	-13.6673
懺	-13.6674
愕	-13.6675
徽	-13.6676
庚	-13.6677
寞	-13.6678
孝	-13.6679
央	-13.668
凱	-13.6681
冶	-13.6682
侠	-13.6683
佇	-13.6684
企	-13.6685
乎	-13.6686
黴	-13.6687
遭	-13.6688
踊	-13.6689
賃	-13.669
讎	-13.6691
謨	-13.6692
蝉	-13.6693
藍	-13.6694
薔	-13.6695
薇	-13.6696
緬	-13.6697
紗	-13.6698
糺	-13.6699
硬	-13.67
瓢	-13.6701
猾	-13.6702
燵	-13.6703
炊	-13.6704
漱	-13.6705
滔	-13.6706
殉	-13.6707
棟	-13.6708
慨	-13.6709
悸	-13.671
嘔	-13.6711
喝	-13.6712
啣	-13.6713
卵	-13.6714
倆	-13.6715
侘	-13.6716
鮨	-13.6717
駁	-13.6718
誅	-13.6719
襯	-13.672
蝦	-13.6721
耻	-13.6722
紋	-13.6723
笥	-13.6724
疾	-13.6725
港	-13.6726
泰	-13.6727
朦	-13.6728
暈	-13.6729
捉	-13.673
托	-13.6731
慄	-13.6732
惹	-13.6733
崇	-13.6734
宇	-13.6735
域	-13.6736
咎	-13.6737
吠	-13.6738
匂	-13.6739
儲	-13.674
采	-13.6741
遜	-13.6742
贔	-13.6743
覆	-13.6744
蒻	-13.6745
蒟	-13.6746
甞	-13.6747
犠	-13.6748
牲	-13.6749
煉	-13.675
濯	-13.6751
桂	-13.6752
掠	-13.6753
庵	-13.6754
巣	-13.6755
噌	-13.6756
嗟	-13.6757
唱	-13.6758
几	-13.6759
飄	-13.676
誂	-13.6761
詐	-13.6762
舐	-13.6763
膜	-13.6764
祟	-13.6765
璋	-13.6766
牡	-13.6767
況	-13.6768
施	-13.6769
慧	-13.677
均	-13.6771
囃	-13.6772
呟	-13.6773
ォ	-13.6774
駈	-13.6775
顛	-13.6776
讐	-13.6777
蝠	-13.6778
蝙	-13.6779
箪	-13.678
痩	-13.6781
瀾	-13.6782
沼	-13.6783
毬	-13.6784
杏	-13.6785
憾	-13.6786
麭	-13.6787
鱈	-13.6788
酎	-13.6789
粧	-13.679
箇	-13.6791
漂	-13.6792
偸	-13.6793
鰹	-13.6794
謙	-13.6795
董	-13.6796
縞	-13.6797
焚	-13.6798
斥	-13.6799
敲	-13.68
揮	-13.6801
拒	-13.6802
択	-13.6803
忌	-13.6804
伎	-13.6805
辟	-13.6806
肖	-13.6807
緊	-13.6808
絞	-13.6809
狽	-13.681
滴	-13.6811
曰	-13.6812
曖	-13.6813
戚	-13.6814
帛	-13.6815
巨	-13.6816
券	-13.6817
頗	-13.6818
阿	-13.6819
補	-13.682
袢	-13.6821
継	-13.6822
燭	-13.6823
整	-13.6824
排	-13.6825
嘲	-13.6826
臘	-13.6827
潔	-13.6828
斐	-13.6829
帖	-13.683
嬌	-13.6831
委	-13.6832
堕	-13.6833
嚀	-13.6834
俯	-13.6835
乃	-13.6836
駆	-13.6837
請	-13.6838
紳	-13.6839
筒	-13.684
捧	-13.6841
塔	-13.6842
餐	-13.6843
逼	-13.6844
贅	-13.6845
縊	-13.6846
筑	-13.6847
械	-13.6848
悠	-13.6849
宴	-13.685
叮	-13.6851
鄭	-13.6852
署	-13.6853
紹	-13.6854
汰	-13.6855
拘	-13.6856
悶	-13.6857
悄	-13.6857
嗅	-13.6858
隊	-13.6859
罹	-13.686
称	-13.6861
獄	-13.6862
娯	-13.6863
套	-13.6864
咽	-13.6865
碌	-13.6866
李	-13.6867
喋	-13.6868
努	-13.6869
硝	-13.687
曇	-13.6871
厘	-13.6872
占	-13.6873
佗	-13.6873
凄	-13.6874
顫	-13.6875
衝	-13.6876
瞼	-13.6877
ヅ	-13.6878
伸	-13.6879
郵	-13.688
躊	-13.6881
距	-13.6882
戒	-13.6883
擦	-13.6884
奪	-13.6885
佞	-13.6885
倔	-13.6885
○	-13.6886
毫	-13.6887
殊	-13.6888
恰	-13.6889
苛	-13.6889
鋭	-13.689
衛	-13.6891
捨	-13.6891
菓	-13.6892
揃	-13.6893
竟	-13.6893
冒	-13.6894
般	-13.6894
技	-13.6895
洒	-13.6895
裕	-13.6896
勤	-13.6897
詳	-13.6897
示	-13.6898
勿	-13.6899
椅	-13.6899
骸	-13.69
秘	-13.6901
拍	-13.6902
慰	-13.6903
乏	-13.6904
拵	-13.6905
庫	-13.6906
促	-13.6907
朋	-13.6907
淫	-13.6907
碗	-13.6908
矛	-13.6909
綺	-13.6909
B	-13.6909
搦	-13.6909
偵	-13.691
抵	-13.691
殆	-13.6911
瞭	-13.6911
既	-13.6912
査	-13.6913
昭	-13.6913
ヂ	-13.6913
避	-13.6914
誌	-13.6915
廊	-13.6915
覗	-13.6916
蕎	-13.6917
握	-13.6918
叩	-13.6919
憎	-13.692
功	-13.6921
涯	-13.6921
玩	-13.6921
呂	-13.6921
丙	-13.6921
倪	-13.6921
ゅ	-13.6922
批	-13.6923
玄	-13.6923
轢	-13.6923
柑	-13.6923
喧	-13.6923
喫	-13.6923
陀	-13.6923
看	-13.6924
妬	-13.6924
亀	-13.6924
ュ	-13.6925
禄	-13.6925
膚	-13.6925
研	-13.6925
C	-13.6925
L	-13.6925
N	-13.6925
〇	-13.6925
ぇ	-13.6925
兇	-13.6925
盾	-13.6925
薯	-13.6925
龍	-13.6925
ィ	-13.6926
康	-13.6926
亦	-13.6926
X	-13.6927
做	-13.6927
授	-13.6927
淋	-13.6928
就	-13.6929
刹	-13.6929
ぢ	-13.6929
稽	-13.693
什	-13.693
僭	-13.693
謂	-13.6931
於	-13.6932
ヨ	-13.6932
労	-13.6933
ユ	-13.6933
冗	-13.6934
斎	-13.6934
嬉	-13.6935
捗	-13.6935
族	-13.6936
爺	-13.6937
鎌	-13.6937
控	-13.6938
希	-13.6939
景	-13.694
較	-13.6941
翌	-13.6942
簡	-13.6943
勉	-13.6944
騒	-13.6945
究	-13.6946
尽	-13.6947
刺	-13.6948
寧	-13.6949
嘩	-13.695
郷	-13.6951
釈	-13.6952
述	-13.6953
愉	-13.6954
挨	-13.6955
拶	-13.6956
ァ	-13.6957
叔	-13.6958
眺	-13.6959
加	-13.696
ャ	-13.6961
禰	-13.6962
以	-13.6963
ょ	-13.6964
―	-13.6965
荘	-13.6965
